<pad>	0
<unk>	0
<s>	0
</s>	0
<usr>	0
<sys>	0
<sep>	0
.	-2.36149
▁	-3.88835
을	-4.36489
요	-4.39791
?	-4.40154
가	-4.46682
도	-4.66905
는	-4.77507
이	-4.7831
게	-4.93726
은	-4.94297
▁거예요	-4.96642
고	-5.01971
를	-5.11834
지	-5.17316
네요	-5.34685
▁수	-5.35893
보세요	-5.37114
의	-5.37976
세요	-5.39702
▁너무	-5.44534
▁좋아하는	-5.49043
▁잘	-5.54307
▁더	-5.55506
▁사람	-5.5601
▁거	-5.56297
서	-5.683
▁안	-5.68511
▁나	-5.72198
▁것	-5.72354
한	-5.78794
에	-5.79336
면	-5.79606
▁많이	-5.84845
▁사랑	-5.8613
봐요	-5.89314
죠	-5.89986
▁좋은	-5.92077
히	-5.96016
▁그	-5.96279
▁이별	-6.00468
▁좀	-6.03222
해보세요	-6.03719
만	-6.05289
랑	-6.09176
▁같아요	-6.10728
로	-6.11888
▁사람이	-6.12494
▁있어요	-6.1318
▁마음	-6.13568
▁있을	-6.13716
▁게	-6.15938
으로	-6.16817
▁생각	-6.18075
▁없어	-6.20623
▁같아	-6.20859
▁싶어	-6.22311
▁때	-6.22483
▁내	-6.23655
▁썸	-6.24218
!	-6.25432
나	-6.26164
하고	-6.28089
▁이제	-6.33368
▁다	-6.34289
▁마세요	-6.3912
▁말	-6.41046
할	-6.41157
▁오늘	-6.42049
다	-6.4205
▁건	-6.4576
▁마음이	-6.46488
길	-6.47254
에서	-6.47764
▁왜	-6.49732
▁있	-6.52949
▁내가	-6.53433
▁해보세요	-6.58164
▁연락	-6.58991
▁다른	-6.59485
▁어떻게	-6.60481
▁있는	-6.60546
네	-6.60912
이에요	-6.63372
▁일	-6.64307
▁시간이	-6.65695
▁싶다	-6.65904
▁다시	-6.66479
는데	-6.68704
▁한	-6.69649
▁남자친구	-6.6972
▁정말	-6.69837
▁시간	-6.70679
▁여자친구	-6.71368
▁뭐	-6.71686
▁가	-6.73693
▁있어	-6.73906
▁또	-6.74885
▁않아	-6.76465
어	-6.76879
니다	-6.77513
▁연애	-6.79272
겠어요	-6.79481
일	-6.79833
▁지금	-6.7999
▁하는	-6.80152
하는	-6.80226
▁저	-6.80474
▁좋을	-6.80649
▁좋아	-6.80972
▁걸	-6.81847
어요	-6.8226
▁못	-6.82568
야	-6.82688
▁친구	-6.83646
▁해	-6.84886
해	-6.85306
▁수도	-6.85328
▁여자	-6.85965
▁조금	-6.88197
▁같이	-6.88253
▁것도	-6.88513
▁하고	-6.89159
▁힘들	-6.89879
에요	-6.91047
▁그런	-6.91539
▁자신	-6.91848
▁될	-6.91938
▁바	-6.92053
든	-6.92238
▁할	-6.93336
하지	-6.93997
▁당신	-6.94473
으면	-6.94658
기	-6.95643
▁아니	-6.96123
하세요	-6.97228
인데	-6.99078
▁자꾸	-6.99105
▁먼저	-6.99835
▁진짜	-7.01007
▁혼자	-7.01769
▁만나	-7.02796
▁일이	-7.03538
가봐요	-7.03974
한테	-7.05566
과	-7.05598
년	-7.05788
하게	-7.06017
▁이	-7.06059
▁헤어진지	-7.06208
▁저도	-7.06692
▁하나	-7.07773
에게	-7.07815
▁돼요	-7.08473
▁그럴	-7.08665
▁좋아요	-7.0963
인	-7.10241
▁바랄게요	-7.1086
거	-7.11201
▁살	-7.11751
▁계속	-7.11861
▁남자	-7.12122
던	-7.12913
거예요	-7.13387
▁없는	-7.13679
▁사	-7.13682
데	-7.13949
는게	-7.14383
제가	-7.16383
▁힘든	-7.16422
▁아무	-7.1798
라	-7.18802
▁없	-7.18934
▁먹고	-7.19006
▁있을까	-7.19869
▁선물	-7.20215
▁사랑이	-7.20361
▁짝녀	-7.20579
랍	-7.21584
▁될까	-7.22083
▁날	-7.22749
▁서로	-7.22956
▁참	-7.24663
▁술	-7.25143
운	-7.25551
▁전	-7.25872
▁방법	-7.25956
라고	-7.27069
니까	-7.27075
상	-7.27121
봅니다	-7.28195
씩	-7.28773
▁준비	-7.29261
▁짝사랑	-7.29533
하면	-7.29989
▁하세요	-7.30993
▁이야기	-7.31949
니	-7.32848
▁생각해요	-7.33929
▁너	-7.34017
보다	-7.34077
▁눈	-7.34728
▁말해보세요	-7.34826
주세요	-7.36225
▁좋죠	-7.36881
▁이렇게	-7.37016
▁드세요	-7.3724
▁좋겠어요	-7.3756
지도	-7.3756
▁결혼	-7.37981
▁애	-7.38078
▁아직	-7.38585
▁많은	-7.38762
▁어떤	-7.39407
▁하	-7.39627
▁하지	-7.40069
나봐	-7.40463
해도	-7.40666
▁해요	-7.40769
▁2	-7.41184
▁돈	-7.41187
다고	-7.43607
▁힘들어	-7.43661
▁몰라	-7.4367
▁보고	-7.4472
▁대화	-7.45105
▁좋겠	-7.45589
▁친구가	-7.45956
,	-7.46385
▁할까	-7.47285
대로	-7.4731
▁무슨	-7.48117
▁머리	-7.48185
▁공부	-7.48749
▁아	-7.49014
▁1	-7.49638
▁싫어	-7.49771
▁중	-7.50593
▁데이트	-7.50768
해요	-7.50973
▁충분	-7.51096
▁있나	-7.51187
까지	-7.51489
까	-7.51546
▁보세요	-7.51578
▁나만	-7.52469
▁짝남이	-7.52565
▁그냥	-7.52674
▁들어	-7.53246
▁카톡	-7.53477
예요	-7.53749
▁사랑하는	-7.5408
▁알	-7.54473
▁사람은	-7.54527
▁그렇	-7.55068
▁생각해	-7.55409
▁오래	-7.55643
지만	-7.55668
▁힘드네	-7.56061
겠죠	-7.56342
와	-7.56352
▁줄	-7.5656
▁있는데	-7.56732
▁고민	-7.57051
▁내일	-7.57196
▁이유	-7.57298
▁감정	-7.57431
입니다	-7.57463
했어	-7.57487
▁새로운	-7.57532
▁후	-7.57771
▁남	-7.59191
나를	-7.59233
▁하루	-7.59597
▁함께	-7.59905
래	-7.60429
▁맘	-7.6056
▁않	-7.61277
▁보	-7.61364
▁타는	-7.61621
▁관심	-7.62198
▁헤어진	-7.6255
▁듯	-7.62631
▁않는	-7.6306
대	-7.63659
▁만큼	-7.64164
항	-7.64174
려	-7.65068
자	-7.65103
심	-7.6534
진	-7.65552
▁제	-7.65941
▁마	-7.6607
▁싶은	-7.66426
▁여행	-7.66515
▁연락이	-7.67279
▁말고	-7.67357
▁그래	-7.6739
▁맛있	-7.67661
수	-7.67807
▁짝남	-7.67993
▁어떨까요	-7.68084
▁3	-7.68151
▁나한테	-7.68274
▁시작	-7.68559
▁주세요	-7.68901
▁돼	-7.69127
▁해야	-7.69453
▁생각이	-7.69779
▁이젠	-7.69792
▁고백	-7.7142
▁운동	-7.71423
▁많아	-7.71659
▁해도	-7.71978
합니다	-7.72825
▁그녀	-7.73152
▁따라	-7.73541
▁쉬	-7.74298
▁모르겠어	-7.74447
▁후회	-7.75039
▁꼭	-7.75602
▁가고	-7.75713
▁마음에	-7.76507
질	-7.76655
▁우리	-7.76868
인지	-7.77186
▁올	-7.77286
▁문제	-7.77335
▁기분	-7.77739
▁꿈	-7.77793
▁언제	-7.77863
▁쉽지	-7.77902
▁안돼	-7.78408
부터	-7.78513
▁찾아	-7.78548
▁하면	-7.7874
건	-7.78792
해주세요	-7.79124
른	-7.79147
리	-7.80924
▁않을	-7.80987
▁곳	-7.81607
▁기억	-7.81645
▁열	-7.81995
▁같은데	-7.82003
▁도움	-7.82089
자고	-7.82248
거나	-7.82315
▁반	-7.82454
해서	-7.82972
▁알아	-7.84982
▁피	-7.85067
▁비	-7.85085
▁정리	-7.85144
▁직접	-7.85324
거라	-7.85798
주	-7.85864
만큼	-7.86009
▁스트레스	-7.86017
▁집에	-7.86044
▁바라요	-7.86309
▁놀	-7.86541
기도	-7.86688
▁좋겠다	-7.86959
▁자	-7.87096
습니다	-7.87121
할까	-7.87231
▁좋을까	-7.87309
▁얼	-7.87841
▁끝	-7.88101
▁누구	-7.88173
▁요즘	-7.88202
긴	-7.88379
점	-7.88447
려고	-7.88506
▁않은	-7.89329
▁만날	-7.89497
▁변화	-7.90529
▁노래	-7.90618
정	-7.90729
장	-7.90773
▁같은	-7.90774
▁없네	-7.90847
▁괜찮아요	-7.90991
걸	-7.918
다면	-7.92007
▁아직도	-7.92051
▁어디	-7.92285
▁되	-7.92402
▁있죠	-7.94076
▁볼	-7.95308
▁마음의	-7.95463
▁인생	-7.95473
함	-7.95496
▁전화	-7.95528
아	-7.95622
▁지	-7.95907
▁중요한	-7.96259
면서	-7.96619
▁오늘도	-7.96656
▁결국	-7.9682
들	-7.96982
야지	-7.97069
▁가는	-7.97137
▁와	-7.97332
처럼	-7.97439
▁필요해	-7.97549
▁집	-7.98286
제일	-7.98523
▁모르는	-7.98842
이라	-7.99035
▁덜	-7.99263
▁오세요	-7.99323
▁점	-7.99768
▁정	-7.99897
▁어느	-8.00118
군요	-8.00219
▁마지막	-8.00262
이야	-8.00471
▁타	-8.00491
적인	-8.00847
▁남자애	-8.0149
겠네	-8.01536
▁해볼까	-8.01579
▁좋겠어	-8.01785
▁가슴	-8.01876
▁기대	-8.02182
▁늦	-8.02226
▁뭘	-8.02293
간	-8.02446
▁가장	-8.02884
▁큰	-8.02926
▁상처	-8.03227
▁이런	-8.0336
▁만들어	-8.03577
▁헤어짐	-8.03637
▁관계	-8.03734
하는데	-8.03842
▁중요해	-8.03927
▁몸	-8.04077
▁아니라	-8.04099
▁되는	-8.04134
이죠	-8.05273
수록	-8.05314
자기	-8.05462
▁매일	-8.06031
▁결정	-8.06183
▁갑	-8.06486
▁가지	-8.0732
▁보내	-8.07762
▁호감	-8.08042
▁날씨	-8.08148
▁부	-8.08222
▁했는데	-8.08347
▁기다려	-8.08348
▁때문에	-8.08492
하기	-8.08781
▁미련	-8.08976
▁말이	-8.09133
▁난	-8.09382
▁연락을	-8.10271
▁천	-8.10382
▁의미	-8.10574
때	-8.10628
것도	-8.10742
▁스스로	-8.10807
▁나쁜	-8.11087
▁남자가	-8.11296
천	-8.11377
▁어제	-8.1145
▁싶은데	-8.11454
대한	-8.11494
▁아파	-8.11551
▁거라	-8.12928
▁맞는	-8.13133
▁없다	-8.13799
▁딱	-8.13869
▁오	-8.14007
▁한달	-8.14216
▁조심하세요	-8.14293
▁나는	-8.14484
▁상대방	-8.14662
▁사람한테	-8.14971
▁추억	-8.15024
▁필요	-8.15173
러	-8.15176
하	-8.15199
▁얼마	-8.15284
▁어때	-8.15414
하네	-8.15554
겠지	-8.15851
▁길	-8.15975
▁연락해	-8.16308
▁들	-8.16747
▁어떡해	-8.16764
▁사진	-8.1691
▁모든	-8.16948
▁손	-8.17075
▁밥	-8.17196
▁한번	-8.17306
차	-8.17432
구	-8.17672
까요	-8.17814
▁정리가	-8.17954
시	-8.18331
방	-8.18413
▁사람들이	-8.18559
▁소개팅	-8.18848
적	-8.18952
▁기분이	-8.19168
▁살고	-8.19314
음	-8.19338
이랑	-8.19401
▁완전	-8.19607
▁같애	-8.19668
▁확신	-8.19698
▁많았	-8.19738
▁커피	-8.19759
▁먹	-8.19795
아요	-8.1984
▁뭘까	-8.19891
▁용기	-8.20139
하죠	-8.20921
▁날이	-8.20967
▁여친	-8.21023
▁잘할	-8.21091
▁잠	-8.21118
▁새	-8.21366
▁처음	-8.21768
▁좋아해	-8.21889
▁당신이	-8.21897
▁헤어지고	-8.22164
▁물어보	-8.2223
▁가끔	-8.22741
하면서	-8.22743
▁핸드폰	-8.22754
▁알았는데	-8.22967
여	-8.23572
져	-8.23723
했나봐	-8.2387
마세요	-8.23897
달	-8.24197
▁왔어	-8.2434
▁선택	-8.24399
드	-8.24597
▁나이	-8.24647
▁정도	-8.24946
▁아침	-8.25042
▁아닌	-8.25063
개월	-8.25579
▁가져	-8.25656
▁자주	-8.26046
▁걱정	-8.26096
했던	-8.26188
▁재회	-8.26212
▁6	-8.2622
▁된	-8.2624
▁필요한	-8.26254
▁좋아할	-8.26279
▁후폭풍	-8.26375
▁모습	-8.26441
▁5	-8.26574
▁입	-8.26805
마다	-8.27286
▁회사	-8.27653
▁없을	-8.27701
▁자기	-8.28263
▁앞에	-8.28282
▁사랑에	-8.28375
▁싶어요	-8.28454
된	-8.2875
▁엄청	-8.29006
▁화	-8.29052
▁나와	-8.29279
▁벌써	-8.29286
▁현실	-8.29293
▁귀	-8.29539
▁되나	-8.29603
▁짝남한테	-8.29649
▁잔	-8.29732
▁감기	-8.29848
▁기다리	-8.29968
▁차	-8.30108
▁재미	-8.30126
인가	-8.30374
▁번	-8.30381
▁보는	-8.30455
치	-8.30522
▁자신이	-8.31003
▁얼굴	-8.31366
▁이상	-8.31414
▁쉬운	-8.31559
▁그만	-8.31904
▁이별이	-8.31981
▁헤어지	-8.3204
▁썸남	-8.32217
▁믿어	-8.32479
▁기	-8.32733
▁예의	-8.32858
▁물	-8.32956
▁두	-8.33482
▁대	-8.33614
▁무	-8.33626
▁영화	-8.34025
▁인연이	-8.34382
▁만난	-8.34495
에는	-8.34732
실	-8.35111
▁받아	-8.35287
▁적	-8.35308
더니	-8.35539
▁만들	-8.35746
▁만나고	-8.3593
▁말아	-8.3611
▁되지	-8.36125
~	-8.36129
▁않았	-8.36136
▁엄마	-8.36301
▁잠시	-8.36339
줄	-8.36411
▁빨리	-8.36485
▁행복	-8.36516
졌어	-8.36714
▁잡	-8.36739
▁남친	-8.36836
일째	-8.36856
▁힘이	-8.36988
인가봐	-8.37339
것	-8.37364
게요	-8.37523
▁생각나	-8.37803
임	-8.37842
▁괜찮은	-8.3825
▁합니다	-8.38313
▁언젠	-8.38344
소	-8.38616
▁진심	-8.38716
▁상대	-8.38846
▁여자애	-8.39077
▁힘들게	-8.3922
▁바람	-8.39581
날	-8.3987
▁신경쓰지	-8.40192
▁아픈	-8.40209
▁갈	-8.40293
▁챙겨	-8.40383
▁모두	-8.40385
▁있다면	-8.40399
▁하죠	-8.40544
▁같	-8.40626
▁남편이	-8.40649
제	-8.40661
▁바쁘	-8.40787
▁좋	-8.40902
신	-8.40997
었어	-8.41032
▁사는	-8.41747
▁사귀고	-8.41813
▁몇	-8.41984
▁연습	-8.4204
달라고	-8.42124
▁고민이	-8.42375
통	-8.42766
▁만나는	-8.43162
▁옷	-8.43662
▁아픔	-8.43771
▁4	-8.44277
▁줘	-8.44528
▁아는	-8.44572
이나	-8.44584
▁되길	-8.44775
▁주	-8.45164
▁맞	-8.45346
만에	-8.45539
▁사이	-8.4565
▁것이	-8.45725
▁잘하는	-8.46115
▁나서	-8.46155
해야	-8.46211
▁부모님	-8.4641
▁모르겠어요	-8.46441
▁여친이	-8.46938
▁사람들	-8.46996
▁있었나	-8.47149
▁안해	-8.47154
▁물어	-8.47206
▁말씀	-8.47567
▁알바	-8.4758
▁좋아하면	-8.47586
▁예쁘	-8.47619
▁꽃	-8.47831
▁동	-8.47836
▁성격	-8.47843
▁슬픈	-8.47844
▁구	-8.47972
릴	-8.4798
금	-8.48251
▁넘	-8.48597
▁소리	-8.48751
▁힘들다	-8.48832
디	-8.48927
▁궁금해	-8.49129
▁티	-8.49314
▁해주세요	-8.49407
트	-8.49448
보	-8.49463
릴게요	-8.50161
▁다가가	-8.50166
▁따뜻	-8.50325
▁됐어	-8.50566
▁약	-8.5059
번	-8.50768
▁화장	-8.50775
▁금	-8.50902
발	-8.5151
▁갖	-8.51618
▁끝이	-8.51883
▁전에	-8.51925
▁곧	-8.51962
▁위해	-8.51989
▁가기	-8.52001
▁우산	-8.52009
▁신경	-8.52119
▁긴	-8.5214
▁아닌데	-8.52147
▁자체	-8.5216
▁걸까	-8.52342
▁밤	-8.52923
▁받	-8.53115
▁그녀를	-8.53237
▁여유	-8.5345
▁중에	-8.53477
며	-8.53628
▁느낌	-8.53726
▁좋아하게	-8.53743
▁예뻐	-8.54002
▁그분	-8.54088
▁행복해	-8.54389
냐	-8.54524
잖아	-8.54577
▁배	-8.54593
▁게임	-8.54665
▁많	-8.54703
울	-8.55449
답	-8.55738
▁쉽	-8.55791
▁좋아하	-8.56207
▁감	-8.56312
▁종교	-8.56353
▁학교	-8.56363
▁직장	-8.56409
▁보통	-8.56424
▁즐거	-8.56446
▁같네	-8.56465
▁힘내세요	-8.56663
있는	-8.56731
▁미리	-8.56812
▁꿈에	-8.5688
▁코	-8.56893
▁사랑했던	-8.57
용	-8.57037
▁당	-8.57049
▁않죠	-8.57377
▁먹으면	-8.57623
▁막	-8.57666
듯	-8.57987
▁드	-8.58021
▁다음에	-8.58058
!!	-8.58126
▁설레	-8.58139
▁다를	-8.58283
▁만남	-8.58412
▁간다	-8.58715
▁물어보는	-8.59277
들이	-8.59422
▁편이	-8.59844
린	-8.59896
▁이별후	-8.59973
▁봐	-8.60041
▁실수	-8.60272
없이	-8.60306
▁진정	-8.60743
덧	-8.60785
▁어려워	-8.60942
▁잘못	-8.60979
▁못하는	-8.61041
▁작은	-8.61097
▁일어나	-8.61257
▁맨날	-8.61354
▁받고	-8.61377
▁책	-8.61424
겠어	-8.61475
나요	-8.61561
▁목	-8.61955
이라면	-8.62017
▁잠이	-8.62051
했어요	-8.62502
▁연인	-8.62653
봐	-8.62752
했는데	-8.62879
▁위로	-8.63082
▁거죠	-8.63327
▁받는	-8.63375
▁이해	-8.63515
다가	-8.63833
갈	-8.63922
▁떠나	-8.63973
▁그래요	-8.64056
▁찾아보	-8.64094
▁노력	-8.6426
▁안되는	-8.64708
▁사세요	-8.64775
▁해봐요	-8.6482
▁힘들지	-8.64912
▁첫	-8.65371
▁깊	-8.65547
찍	-8.65637
▁알고	-8.65649
▁바쁜	-8.65655
▁주무	-8.65663
▁멋진	-8.65665
▁남친이	-8.65692
▁나중에	-8.65703
▁기회	-8.65731
▁괜찮을까	-8.65864
▁표현	-8.65919
▁고민이야	-8.65921
▁썸남이	-8.66101
▁선	-8.66265
▁뭐야	-8.6635
▁만	-8.66458
▁쓰	-8.66544
▁끝나	-8.66552
▁확인해	-8.66834
▁약속	-8.66998
겠지만	-8.67112
▁사귀는	-8.67118
일까	-8.67342
▁했어	-8.67391
▁건강	-8.6763
▁싫다	-8.67681
▁건지	-8.68096
하다	-8.68179
▁되어	-8.68658
▁없나	-8.68778
▁많아요	-8.68808
▁차이	-8.69272
▁고생	-8.69299
볼까	-8.69448
▁보면	-8.69485
▁좋아하는데	-8.69605
▁맛	-8.69789
▁사귀	-8.69943
선	-8.70124
내	-8.70136
▁하는데	-8.70322
▁비싸	-8.70406
집	-8.70494
ᅲᅲ	-8.70575
▁괜	-8.70608
▁꾸준	-8.70654
친구한테	-8.70671
▁헤어졌습니다	-8.70713
▁귀찮아	-8.70762
지는	-8.7082
▁자신감	-8.70887
▁되겠	-8.70891
▁받아들이는	-8.70937
▁못하겠어	-8.70957
▁전여친	-8.71003
▁척	-8.71111
▁괜찮	-8.71148
▁절대	-8.71152
▁시기	-8.71314
▁이별의	-8.71324
텐데	-8.7137
▁그러면	-8.71491
▁습관	-8.71584
▁좋겠죠	-8.71703
▁두려워	-8.71791
▁매	-8.71888
▁여자애가	-8.72235
▁되네	-8.72418
▁믿	-8.72653
▁대해	-8.72703
▁생각할	-8.72704
▁인	-8.73048
원	-8.7343
▁받을	-8.73519
▁데	-8.73536
란	-8.73656
이별을	-8.73677
▁별	-8.7378
▁세	-8.73846
▁말해	-8.73977
▁벌	-8.74117
▁두달	-8.7421
싶네요	-8.74289
▁소중	-8.74385
사	-8.74522
럽	-8.7457
▁주는	-8.74788
▁행동	-8.75036
▁상관	-8.7511
중	-8.75254
▁방법이	-8.7528
▁모르	-8.7547
▁분	-8.75737
▁삶	-8.75866
▁드디어	-8.75931
▁분위기	-8.75931
▁무서워	-8.75942
▁같습니다	-8.76035
▁만났어	-8.76047
▁위	-8.76054
▁먹어야지	-8.76065
▁잠깐	-8.76167
▁뿐이	-8.76246
▁사람에	-8.76254
▁확실한	-8.76284
▁중요하지	-8.76326
▁세상에	-8.76436
▁문자	-8.76512
▁생겼	-8.76653
▁원하는	-8.76884
▁개	-8.76891
▁추천	-8.76943
▁없이	-8.76975
▁답	-8.77104
▁세상	-8.77329
▁좋지	-8.77693
▁확실	-8.77942
비	-8.78275
▁뿐	-8.78286
▁순간	-8.78316
▁남자들	-8.78332
▁어	-8.78448
▁능력이	-8.78572
▁글	-8.78578
▁법	-8.78734
▁차단	-8.78949
▁사랑하면	-8.78956
▁가능	-8.78961
까봐	-8.79007
▁이상형	-8.791
▁주변	-8.79418
애가	-8.79608
을까	-8.79927
▁나을	-8.80398
▁말하는	-8.80474
▁연락하고	-8.80582
▁드는	-8.81095
줘	-8.81209
▁되고	-8.81304
▁봄	-8.81344
▁가야	-8.81436
▁연예인	-8.81482
▁자책하지	-8.81503
해야지	-8.81527
▁오는	-8.81691
▁이번	-8.8173
▁시험	-8.81732
보면	-8.81748
▁뭔지	-8.81777
▁짝녀한테	-8.81877
▁누가	-8.81883
▁안녕	-8.81918
▁아닐까요	-8.81977
▁욕	-8.82078
단	-8.82123
▁미련이	-8.82143
더라고요	-8.82166
▁사랑한	-8.82206
▁아프	-8.82244
▁아프네	-8.82291
▁그리고	-8.82326
▁아닌지	-8.82505
▁사랑할	-8.82585
동안	-8.8261
▁내려	-8.82923
▁받았어	-8.82985
으세요	-8.82989
▁하늘	-8.82999
▁빼	-8.83375
더라	-8.83517
▁폰	-8.8354
▁편	-8.83663
▁연락해도	-8.83753
▁보지	-8.84198
▁그녀가	-8.84467
▁살아	-8.84551
으니까	-8.84595
▁않고	-8.84831
▁시	-8.8558
▁사랑해	-8.85675
▁정신	-8.85841
▁만나지	-8.85913
▁써	-8.86377
▁기다리는	-8.86435
▁안들어	-8.86453
▁초	-8.86534
▁숨	-8.86648
▁눈물	-8.87138
칠	-8.8715
림	-8.8718
▁발	-8.87293
▁비밀	-8.87332
▁오빠	-8.87339
▁담배	-8.87341
▁알려줘	-8.87367
▁자존감	-8.8737
▁마시	-8.8747
▁생길	-8.8748
리는	-8.8773
▁말씀해	-8.8777
▁탈	-8.8802
▁저에게	-8.88039
▁상황이	-8.88052
▁힘들겠지	-8.88064
▁싸	-8.8816
▁따	-8.88187
▁도전	-8.88188
▁죽을	-8.884
▁편지	-8.8855
▁첫사랑	-8.88628
▁잊을	-8.88641
▁돈이	-8.88655
▁놀아	-8.88771
▁스킨십	-8.89078
▁타고	-8.89093
▁좋다	-8.89235
▁사랑하고	-8.896
▁속	-8.8983
▁먹을	-8.90283
는건	-8.90346
▁뒤	-8.90379
증	-8.90836
▁웃	-8.90937
▁모	-8.90969
▁신	-8.91117
▁이야기해	-8.91193
사람을	-8.91343
▁카페	-8.91788
했으면	-8.91888
▁관리	-8.91965
▁성공	-8.91967
▁준비하	-8.91989
▁가세요	-8.9206
▁안하고	-8.9214
▁자연스러	-8.92577
▁하기	-8.92619
야겠다	-8.92688
▁생각만	-8.92995
▁있지	-8.93078
다는	-8.93207
▁별로	-8.93234
▁힘	-8.93238
▁썸녀	-8.93312
우	-8.93391
▁월급	-8.93464
▁경우	-8.93546
▁병원	-8.93585
▁어플	-8.93592
▁적당	-8.93597
▁원래	-8.93628
▁떨려	-8.93655
▁헤어졌어	-8.93679
▁잊지	-8.93763
▁않는다면	-8.93777
▁제대로	-8.93805
▁축하해요	-8.9391
년째	-8.93916
▁단	-8.93967
▁인기	-8.93985
▁청소	-8.94013
▁생일	-8.94132
▁붙잡	-8.94186
▁쇼핑	-8.94212
▁재밌	-8.94473
▁자신에게	-8.94537
▁괜찮아	-8.94688
▁보러	-8.9479
가면	-8.94861
▁복	-8.94928
▁가족	-8.95014
▁보이	-8.95032
▁친구들이	-8.95061
▁것보다	-8.95122
▁좋아할까	-8.95129
전	-8.9526
고생	-8.95292
▁깨	-8.95471
▁피해	-8.95508
크	-8.95596
▁네	-8.95666
가서	-8.9567
▁있습니다	-8.9572
▁좋아하나	-8.95745
▁로맨틱	-8.95853
▁되었	-8.96179
같은	-8.9627
▁주면	-8.96347
▁지켜	-8.96373
▁감정이	-8.96466
▁오랜만	-8.96528
▁사람과	-8.96547
▁지나	-8.96834
▁끝을	-8.97491
▁만나자	-8.97519
가요	-8.97546
▁앞	-8.97554
▁거짓말	-8.97617
▁아이	-8.97727
ᅮ	-8.97974
째	-8.97992
▁싶	-8.98133
▁만남이	-8.98314
▁편하	-8.98549
▁필요하겠	-8.98806
▁학	-8.98981
▁나랑	-8.99075
두	-8.99177
▁프사	-8.99413
▁쉬어	-8.99613
▁양	-8.99657
▁정리하	-8.99672
▁그러	-8.99789
거야	-8.99826
▁강	-8.99901
살	-8.99905
▁정리하는	-9.0001
▁고	-9.00193
▁집안일	-9.00277
▁잊혀지	-9.00344
▁의사	-9.00406
▁최고	-9.00464
▁않았으면	-9.0047
▁짜증나	-9.00477
▁장거리	-9.005
▁영	-9.00513
▁조언	-9.00572
▁상담	-9.00606
▁답장	-9.0064
▁뭔가	-9.00658
▁힘들겠	-9.00671
▁여자친구와	-9.00769
▁연락하는	-9.00823
라면	-9.0095
▁둘	-9.01106
▁눈물이	-9.01206
▁상황을	-9.01214
▁친구들	-9.01272
▁살펴	-9.01286
▁떨	-9.01319
▁차분	-9.01329
▁짧	-9.01403
▁따로	-9.01531
▁뭐라고	-9.01551
▁죽	-9.01569
▁곳이	-9.01623
다니	-9.01933
피	-9.01985
▁감사	-9.01994
▁전남친	-9.02335
▁알아보	-9.0244
▁싶지	-9.02464
▁환승	-9.02505
▁달라지는	-9.02602
▁괜찮을	-9.02658
케	-9.02792
▁알게	-9.03168
ᅲ	-9.03222
▁명	-9.03352
▁끝내	-9.0343
난	-9.03452
스	-9.03532
▁필요하	-9.03607
▁온	-9.03648
▁만났	-9.03677
▁소	-9.03712
▁힘들었	-9.03914
▁눈에	-9.03945
▁부분	-9.04082
▁시켜	-9.04155
워	-9.04396
▁진	-9.0446
▁옆에	-9.04609
▁스타일	-9.04611
▁장	-9.0464
▁느낌이	-9.04652
▁말도	-9.04991
▁여	-9.05031
▁주지	-9.05032
▁집착	-9.05256
▁못해	-9.05408
▁식	-9.05743
▁버리	-9.05788
▁생각하는	-9.06001
▁속이	-9.06092
▁마련이	-9.06243
▁살펴보	-9.06311
▁해결	-9.06368
한다면	-9.06404
▁떠	-9.06531
▁보고싶어	-9.06627
▁잊고	-9.06928
▁적극적	-9.06958
▁쓰레기	-9.07131
락	-9.07272
▁샀	-9.07307
엔	-9.07307
땐	-9.07307
▁졸업	-9.07382
▁떠난	-9.07412
▁걱정돼	-9.07433
▁여러	-9.07435
▁어려운	-9.07445
▁휴식	-9.07468
▁결과	-9.07469
▁마주치	-9.07481
▁안경	-9.07487
▁친구들과	-9.0752
▁최선	-9.07523
▁뭐라	-9.07558
▁만났는데	-9.07567
▁좋을텐데	-9.07593
▁그렇지	-9.07633
▁걱정하지	-9.07718
▁용기내	-9.07722
건가	-9.07741
돼	-9.07833
후	-9.07933
▁서로에	-9.0796
시군요	-9.08073
▁얘기	-9.08086
▁않을까요	-9.08132
▁이상해	-9.08259
▁커플	-9.08297
▁빌려	-9.08299
▁파	-9.08314
▁생기	-9.08586
론	-9.08642
▁있으니까	-9.08865
▁사랑해서	-9.08876
▁잊어버리	-9.08937
▁놓아주	-9.09127
약	-9.09157
▁좋은데	-9.09506
는거	-9.09818
▁받지	-9.09871
▁심해	-9.10078
셔	-9.10082
걸까	-9.10197
▁선택일	-9.10363
말	-9.10406
▁이사	-9.10521
▁종	-9.10781
▁하셨	-9.10898
▁선물이	-9.10913
▁밖에	-9.11085
▁쉬는	-9.1124
▁생겼어	-9.11255
▁물어봐	-9.11825
주가	-9.12001
▁달	-9.12106
▁추억이	-9.12116
▁질	-9.12163
야죠	-9.12226
▁상처받	-9.12246
짝	-9.12527
르	-9.12574
▁모르겠네	-9.12579
▁돌	-9.12683
▁안나	-9.12817
▁준	-9.12938
▁후회할	-9.13329
▁행복하	-9.13631
이라고	-9.13656
▁낫	-9.13706
어보세요	-9.14056
▁원	-9.14172
▁다르	-9.14282
▁노력하	-9.14312
▁보기	-9.14344
▁슬프	-9.1439
보는	-9.14491
▁장난	-9.14562
▁휴	-9.14647
료	-9.14804
▁공	-9.1488
▁예쁜	-9.14966
▁아닐	-9.14967
▁지났네	-9.14979
▁헷갈리	-9.15016
쳐	-9.15054
▁대학	-9.15069
▁미친	-9.15072
▁버스	-9.15074
▁바빠	-9.15076
▁다이어트	-9.15099
▁뜻	-9.15106
▁추워	-9.15111
▁미래	-9.1512
▁본인	-9.15124
▁잊는	-9.15142
▁헤어졌는데	-9.15178
▁취업	-9.1518
▁부담스럽	-9.15194
좀	-9.15206
▁눈치	-9.15217
▁어쩌지	-9.15244
▁졸	-9.15244
▁한동안	-9.1528
▁미	-9.15362
▁취미	-9.15433
▁현상	-9.15439
▁무엇이	-9.15506
저	-9.1552
▁한잔	-9.15553
▁시작이	-9.15674
▁접	-9.15693
▁극복	-9.15702
▁썸타는	-9.1576
▁10	-9.15764
▁흘렀네	-9.15783
▁나오	-9.15787
준	-9.15849
▁있겠지	-9.15922
▁저한테	-9.16099
▁찾아올	-9.16123
▁인정	-9.16137
동	-9.16208
▁조	-9.16276
▁상관없	-9.16285
▁꿈에서	-9.16333
▁휴가	-9.1652
▁그대로	-9.16563
▁이해해	-9.16625
▁번호	-9.16629
었는데	-9.16846
▁생각하	-9.1689
▁생각나는	-9.16904
▁볼까	-9.16932
▁유	-9.17074
낼	-9.17134
▁상	-9.17258
▁존중	-9.17415
▁없애	-9.17429
▁우울	-9.17558
▁사랑하	-9.17592
▁선톡	-9.1772
▁이상한	-9.17732
놓고	-9.18142
▁키	-9.18213
▁어때요	-9.18376
▁운명	-9.18546
▁만나면	-9.18655
▁위로해	-9.18818
▁피곤해	-9.18822
▁되면	-9.18826
겨	-9.19188
▁만드	-9.19271
마	-9.19331
▁살아야	-9.1979
▁다음	-9.19994
▁했던	-9.20001
▁있네	-9.2001
매	-9.20112
▁일주일	-9.20327
▁배우	-9.20709
▁시원	-9.20751
▁솔직하	-9.21015
▁마셔	-9.21064
카	-9.21303
▁있나요	-9.21367
▁했으면	-9.21371
▁싫은	-9.2144
▁것을	-9.21514
▁부담	-9.21607
▁오해	-9.21973
부	-9.22096
▁부러워	-9.222
▁놓	-9.22202
▁맞춰	-9.2246
같아	-9.22543
별	-9.22824
▁중요하	-9.22973
▁외로워	-9.23033
션	-9.23254
▁완벽	-9.2327
▁어쩔	-9.23284
▁7	-9.23333
▁스키	-9.23336
▁군대	-9.23356
▁기다릴	-9.23382
▁저녁	-9.23393
▁버텨	-9.23393
▁자격	-9.23394
▁면접	-9.23395
▁새벽	-9.23396
스크	-9.23411
▁SNS	-9.23412
▁도서관	-9.23412
▁다르겠지	-9.23415
▁귀여워	-9.23418
▁화장실	-9.23462
▁벗어나	-9.23498
▁어떡하지	-9.23522
▁지쳤나	-9.23626
▁통보	-9.23696
▁발전	-9.23719
▁앞으로	-9.23726
▁8	-9.23736
▁칭찬	-9.23739
▁돌아오	-9.23789
▁미세먼지	-9.23843
▁헤어지자고	-9.23854
▁이별에	-9.23888
▁실감	-9.23909
▁헤아리	-9.2405
기는	-9.24056
▁찾아가	-9.24083
▁해서	-9.24086
▁어울리	-9.24109
▁톡	-9.24149
▁됨	-9.24167
렇게	-9.24303
▁일상	-9.2437
▁행복할	-9.24392
▁행복한	-9.24399
▁독	-9.24471
▁지나갈	-9.24497
▁타는데	-9.24501
▁사랑한다	-9.24511
냐고	-9.24584
▁의심	-9.24634
었길	-9.24685
▁곳에	-9.24695
▁왔다	-9.24778
주는	-9.24809
▁자연스	-9.24961
▁변하	-9.24961
▁못할	-9.25035
▁인연	-9.25046
▁과정	-9.25156
▁않으면	-9.25238
▁상처를	-9.25353
▁생각해보세	-9.25452
▁안전	-9.25455
▁왔는데	-9.25663
▁필요할	-9.25787
▁안되	-9.25822
▁이거	-9.25896
▁걱정이	-9.25903
▁중요	-9.25904
▁직접적	-9.26037
▁여자들	-9.2617
▁먹는	-9.26181
▁사귀기	-9.26265
▁바보	-9.26303
돈	-9.26744
▁소식이	-9.26828
▁재	-9.26947
▁계	-9.26966
식	-9.26979
박	-9.27108
감	-9.27143
▁힘내	-9.27279
▁언젠가	-9.27337
▁남기	-9.27653
▁짐	-9.27746
▁그리워	-9.27872
▁드시	-9.27945
건지	-9.28428
▁인간	-9.2872
▁없으면	-9.28721
▁스	-9.28727
▁주고	-9.28823
▁후련하	-9.28867
▁헤어져야	-9.28881
지고	-9.29005
▁인사	-9.2915
▁기운	-9.29227
▁꿈이	-9.29364
▁들어가	-9.29574
▁간	-9.29596
▁상황	-9.29723
??	-9.30016
▁걷	-9.3021
작	-9.30332
▁풀	-9.30656
▁과	-9.30737
▁풀어	-9.30842
▁지쳐	-9.30858
▁쓰는	-9.31172
▁질투	-9.31173
▁생각하지	-9.31337
▁잊	-9.31432
▁좋겠지	-9.31728
▁다행이	-9.31812
성	-9.31982
▁그사람	-9.32026
▁않네	-9.3205
▁자고	-9.32091
보고	-9.32133
라는	-9.32185
▁짝사랑하는	-9.3219
친구가	-9.32213
▁분이	-9.32241
▁사귈	-9.32424
▁푹	-9.32424
콩	-9.32424
▁시계	-9.32427
▁골라	-9.32446
▁음식	-9.32466
▁치과	-9.3248
▁기념일	-9.32495
▁안타깝	-9.32495
▁심호흡	-9.32495
▁남겨	-9.32498
▁시어머니	-9.32506
▁축하드려요	-9.32515
▁하루하루	-9.32517
▁불러	-9.32533
▁지난	-9.32558
▁취	-9.32582
▁궁금하네	-9.32587
▁돌려	-9.32589
▁상사	-9.32598
▁참아	-9.32688
▁떨어졌어	-9.32725
▁친한	-9.32819
한다	-9.32833
▁넌	-9.32853
▁꿨어	-9.32855
팅	-9.32864
▁나왔어	-9.32919
▁희망	-9.32922
▁말투	-9.32944
▁증거	-9.33024
▁크게	-9.33128
▁집중	-9.33151
▁조심	-9.33296
▁다행	-9.33305
▁존재	-9.33318
▁많죠	-9.33356
▁후회하지	-9.33436
▁조절	-9.33444
▁가능성	-9.33459
▁생각나네	-9.33475
▁학원	-9.33499
▁순	-9.33702
▁부러워요	-9.33864
▁문득	-9.3389
▁했습니다	-9.33897
▁내리	-9.33902
해볼까	-9.33921
▁마련	-9.33927
▁연락하면	-9.34001
▁거야	-9.34038
▁믿음이	-9.34089
▁올려	-9.34133
▁편한	-9.34164
▁안와	-9.34293
▁놀러가	-9.34444
▁혼자만	-9.34741
▁듣	-9.34873
▁떨리	-9.35115
▁그것	-9.3519
▁해보는	-9.35452
▁담	-9.35455
▁있을거예요	-9.35458
▁그러게	-9.35572
▁그랬	-9.35656
화	-9.35671
▁진급	-9.35682
▁감정에	-9.35718
▁못하고	-9.35795
▁달라고	-9.35887
▁부모님이	-9.35988
이란	-9.3607
▁반지	-9.36145
▁되는데	-9.36216
▁여기	-9.36258
예	-9.36272
▁통해	-9.36365
▁꾸	-9.36366
▁무시하	-9.36562
갑	-9.36601
▁연락하	-9.36605
▁비가	-9.36617
어도	-9.36758
▁달라	-9.36765
▁심	-9.36801
▁전해	-9.36989
▁공부하	-9.3699
▁하네	-9.37002
▁걸어	-9.37008
▁생겼네	-9.37064
▁지내	-9.37104
▁미워	-9.37117
양	-9.37218
거같아	-9.37244
▁연락처	-9.37275
▁봐도	-9.37308
▁지나가	-9.37437
▁결혼식	-9.37462
▁사귀어	-9.37481
초	-9.37486
종	-9.37503
▁다리	-9.37556
▁충전	-9.37775
▁자세	-9.37806
구나	-9.37835
행	-9.37983
▁거절	-9.38012
▁시작해	-9.38022
▁괜찮아졌	-9.38243
▁않게	-9.38287
▁용	-9.38352
▁비교하	-9.38382
▁두고	-9.38473
인듯	-9.38681
▁짝사랑이	-9.38682
▁커	-9.38714
▁지나갔	-9.38999
▁답답한	-9.39013
▁부족한	-9.39076
▁먹었	-9.391
말고	-9.39126
됐어	-9.39127
▁나가	-9.39387
이면	-9.39463
▁기본	-9.39744
▁불	-9.39961
▁드네	-9.40027
되	-9.40288
런	-9.40314
▁것들	-9.40484
▁했나봐	-9.40647
▁어서	-9.40694
르고	-9.40724
▁멍	-9.40739
꺼	-9.40862
왔어	-9.40951
이별한	-9.4112
▁주말	-9.41353
▁동안	-9.41445
혀	-9.4151
▁있으	-9.41634
▁없겠네	-9.41769
▁보여	-9.4189
▁틀	-9.4192
▁바라	-9.4193
▁중인	-9.41969
▁텐데	-9.42249
쯤	-9.4238
▁계획	-9.42419
▁걔	-9.42424
▁권태기	-9.42424
▁바뀔	-9.42424
▁페북	-9.42424
▁휴대폰	-9.42424
곰	-9.42424
류	-9.42424
▁보험	-9.42424
푸	-9.42424
▁괴롭	-9.42424
▁혹시	-9.42425
▁멈추	-9.42425
▁가벼	-9.42428
▁발표	-9.42428
▁목소리	-9.42428
▁축구	-9.4243
립니다	-9.42431
▁평소	-9.42436
▁무서운	-9.42442
▁누군가	-9.42489
▁괜찮아질	-9.42498
시길	-9.42518
▁하다보	-9.42524
▁남을	-9.42556
▁이혼	-9.42565
▁필요하다면	-9.42579
▁어려	-9.42651
▁상상	-9.42654
▁차별	-9.42662
▁똑같은	-9.42675
▁관심사	-9.4272
▁안됐는데	-9.42788
▁고민하	-9.42803
▁최고죠	-9.42829
▁극복할	-9.42846
▁쐬	-9.42885
▁쓴	-9.42885
조차	-9.42904
▁등	-9.42924
▁없겠지	-9.42964
▁알면서도	-9.43016
▁보고싶다	-9.43058
▁새로	-9.43121
▁좋지만	-9.43182
▁회사에서	-9.432
▁알려주	-9.43313
못한	-9.434
▁됐으면	-9.43469
▁행복하게	-9.43509
▁채워	-9.4352
▁인상	-9.43527
▁어린	-9.43551
▁어렵	-9.43651
▁노	-9.43724
▁살기	-9.43751
년간	-9.43891
▁둘이	-9.43902
▁방학이	-9.43944
▁갈까	-9.43956
▁고통	-9.43968
▁사과	-9.44081
▁썸이	-9.44093
▁귀엽	-9.44147
▁당당하	-9.44202
▁됩니다	-9.4426
듯이	-9.4428
▁맘에	-9.44351
▁거울	-9.44375
▁알면	-9.44452
렸어	-9.44798
이네	-9.44976
▁말할	-9.45033
한데	-9.4506
지내고	-9.45168
▁됐네	-9.45183
▁싸우	-9.45222
▁남자랑	-9.45249
▁속에	-9.45284
메	-9.45384
▁짓	-9.45613
터	-9.45647
▁변	-9.45906
될	-9.4593
▁나에게	-9.45966
▁나온	-9.4603
▁생긴	-9.46088
▁생각했나봐	-9.46108
▁배워	-9.46115
▁크	-9.46199
겠다	-9.46332
▁먹어	-9.4646
형	-9.46654
▁집에서	-9.46846
▁사이에	-9.47005
▁개인	-9.47086
▁놀이	-9.47176
밖에	-9.47196
줬어	-9.47212
▁끊	-9.47283
하길	-9.47398
▁부분이	-9.47399
▁건가	-9.47476
▁데려다	-9.47509
▁않으니	-9.47513
와서	-9.47707
였어	-9.47707
▁야근	-9.47711
▁후에	-9.47789
▁처음에	-9.47896
▁피하	-9.47988
▁고백하는	-9.48251
▁안하는	-9.48327
새	-9.48359
▁했나	-9.48484
기만	-9.48783
시나	-9.4883
었	-9.48843
▁놀러	-9.49047
▁찍	-9.49057
▁포기	-9.49209
▁다녀	-9.49305
었나봐	-9.49346
▁사야	-9.4939
들을	-9.49393
▁생각에	-9.49452
▁챙겨드	-9.49517
▁없어서	-9.49548
▁마무리	-9.49558
▁키우	-9.49572
▁듣고	-9.49622
▁표현이	-9.49633
▁함	-9.49849
▁사실	-9.50073
▁편할	-9.50272
▁없지	-9.50687
잠을	-9.50901
움	-9.51176
▁썼	-9.51197
년이	-9.51326
고싶은데	-9.5133
▁재미있	-9.51402
녀	-9.51659
▁해주는	-9.51731
▁동물	-9.51828
▁크리스마스	-9.51926
▁외로	-9.51995
▁더워	-9.52031
▁사귄	-9.5206
▁동거	-9.52111
▁이럴	-9.52255
▁받으면	-9.52277
▁몰	-9.52355
▁최	-9.52455
맥	-9.52643
▁친구로	-9.52655
을지도	-9.52874
▁꼬	-9.53049
▁많지	-9.53183
▁뿌	-9.5319
▁답답해	-9.53226
▁역시	-9.53292
▁흔적	-9.53463
곤	-9.53497
릿	-9.5353
▁땀	-9.53535
▁달콤	-9.53535
▁띄	-9.53535
▁오랫	-9.53535
▁컨	-9.53535
닉	-9.53535
링	-9.53535
▁억지로	-9.53535
▁기분전환	-9.53537
▁평생	-9.53537
▁외롭	-9.53538
▁이겨낼	-9.53539
▁클럽	-9.53543
▁고마워	-9.53544
▁어찌	-9.53545
▁은근	-9.53546
▁이별통보	-9.53548
▁각자	-9.53549
▁노후	-9.53551
▁멋져	-9.53551
▁분명	-9.53552
▁느려	-9.53554
▁생겨	-9.53554
▁인형	-9.53559
▁언제쯤	-9.53584
▁달달	-9.53587
▁그리움	-9.5359
▁피부	-9.53602
▁힘든가봅니다	-9.53659
▁제발	-9.53671
▁고백했는데	-9.53674
▁밝혀	-9.5369
▁지칠	-9.5369
▁소원	-9.53709
▁끝난	-9.53733
▁전환	-9.53746
▁싶습니다	-9.53808
▁팔	-9.53825
▁솔직한	-9.53827
▁태어난	-9.53841
▁말해볼까	-9.53841
▁막말	-9.53876
▁거니	-9.53896
▁소화	-9.53919
▁아프다	-9.53937
▁예민한	-9.53984
▁즐기세요	-9.54028
▁지금처럼	-9.54078
▁매력	-9.54091
▁소비	-9.54143
▁조급해	-9.5417
▁이러지	-9.54197
안	-9.54206
▁실	-9.54234
▁봄이	-9.54242
오세요	-9.5431
▁먹을까	-9.54315
▁많은데	-9.5432
▁힘들었을	-9.54381
리기	-9.54538
▁당연	-9.5465
▁연	-9.54724
▁죄	-9.5476
▁짧은	-9.54801
▁할텐데	-9.54815
▁노래방	-9.5489
▁여자친구에게	-9.54951
▁습관이에요	-9.54958
▁노력하는	-9.55012
▁심심	-9.55013
▁어디서	-9.55035
됐는데	-9.55069
▁슬	-9.55125
▁다가	-9.55184
▁망	-9.55197
▁관리하	-9.55209
▁있겠죠	-9.55241
▁경험이	-9.55313
▁쓰고	-9.55315
▁있지만	-9.55365
▁빠지	-9.55382
▁들었어	-9.55463
▁흔들리지	-9.55534
▁그대	-9.55567
전에	-9.55661
분	-9.5569
▁있었	-9.557
시간	-9.55793
▁애들	-9.55813
는지	-9.56104
▁우	-9.56162
▁건강에	-9.56318
▁놔	-9.5643
▁자신만	-9.56471
▁울어	-9.56489
▁허	-9.56645
▁잊기	-9.56754
으	-9.56867
▁미안해	-9.56867
했네	-9.56933
▁해줘	-9.5703
연	-9.57125
▁심하	-9.57151
▁몰랐	-9.57169
▁말하지	-9.57246
▁쉬어가	-9.57344
▁우울해	-9.57502
당	-9.57662
었으면	-9.57667
▁이러	-9.57802
▁찾기	-9.57936
▁생각이에요	-9.58009
▁생	-9.58062
나면	-9.5822
▁확인	-9.58325
▁결혼하	-9.58596
혼자	-9.58619
▁가사	-9.58625
냈어	-9.58667
▁무시	-9.58734
▁문	-9.58966
짐	-9.59055
▁아니니	-9.59058
▁도와주	-9.59184
기를	-9.59213
재	-9.5944
만으로	-9.59608
▁친	-9.59646
품	-9.59733
▁있겠	-9.59749
따라	-9.59818
두고	-9.5988
▁슬퍼	-9.59883
어서	-9.59941
명	-9.59987
▁선택이	-9.60024
▁놓아	-9.60311
▁배우는	-9.6034
▁능력	-9.60355
▁즐기	-9.6038
콜	-9.60406
▁다니	-9.60434
이었으면	-9.60541
▁잊어	-9.60546
▁거기까지	-9.60587
▁싫	-9.60589
놈	-9.60694
학	-9.60713
▁했	-9.60746
김	-9.60845
▁적어	-9.60858
▁소개	-9.60943
도시	-9.60988
▁차리	-9.61352
▁스트레칭	-9.61362
▁읽	-9.61413
허	-9.61518
맛	-9.61645
▁태도	-9.61709
병	-9.61787
▁본	-9.61913
애	-9.61944
▁기억이	-9.61954
달째	-9.62018
▁버려	-9.62022
▁싸우면	-9.62335
▁몸에	-9.62677
▁바뀌	-9.6268
▁유지하	-9.62689
가봅니다	-9.6274
▁출근	-9.62775
▁씻	-9.62901
느	-9.63256
▁한달이	-9.63303
리가	-9.63372
창	-9.63374
▁적응	-9.63435
▁추천해	-9.6352
▁과정이	-9.63532
하러	-9.63713
▁맞았	-9.6374
이라는	-9.63875
▁믿음	-9.63886
▁남편	-9.63918
▁계절이	-9.6393
▁실망	-9.63947
코	-9.63969
▁긍정적	-9.64267
▁전부	-9.64308
▁준비하는	-9.64365
▁표현해	-9.64382
사람	-9.64401
하려고	-9.64433
름	-9.6444
줬으면	-9.64447
했	-9.6455
싶어	-9.6457
▁운명이	-9.64572
▁견뎌	-9.64976
복	-9.6501
글	-9.65051
하니	-9.6517
가는	-9.65212
▁춥	-9.65292
▁주말이	-9.65349
리를	-9.65534
▁자유	-9.65645
▁끄	-9.65716
▁보냈	-9.6572
▁결정이었을	-9.65749
▁흐	-9.6575
▁판단	-9.65762
▁있을지	-9.65765
▁가능할	-9.65822
▁상태	-9.65832
▁퇴근	-9.65856
▁알아차	-9.66009
▁돌아가	-9.6601
께	-9.66024
▁딴	-9.66029
▁9	-9.66035
ᄏ	-9.66035
▁공무원	-9.66035
▁드라마	-9.66035
▁설렘	-9.66035
▁청첩장	-9.66035
▁택배	-9.66035
토	-9.66035
▁에너지	-9.66035
▁우선순위	-9.66036
▁정신차리	-9.66036
▁위로봇	-9.66036
▁메모	-9.66037
▁산책	-9.66038
▁업무	-9.66039
▁에휴	-9.6604
▁외모	-9.66041
▁힘듭니다	-9.66042
▁빠르	-9.66045
▁불행	-9.66049
▁응원합니다	-9.66053
▁재미있어	-9.66055
▁떨어져	-9.66057
▁온전	-9.66069
▁간접적	-9.66073
▁다녀오세요	-9.6608
▁향수	-9.66082
▁맛집	-9.66092
▁맞는걸까	-9.66098
▁경쟁	-9.66108
▁이미	-9.66122
꼬박	-9.66142
▁일어났	-9.6615
▁바꾸	-9.66155
▁집들이	-9.66157
차근	-9.66164
▁잠수	-9.66241
▁오네	-9.66285
▁이성	-9.66312
▁환승이별	-9.66327
▁안되네	-9.66379
▁빠를	-9.66385
▁걸릴	-9.66403
▁느끼는	-9.66409
▁흐르고	-9.66419
▁터	-9.6646
▁들여	-9.6647
▁가까	-9.66486
겠	-9.66514
▁누구에게	-9.66556
▁자리	-9.66622
▁지진	-9.66636
▁근처	-9.66652
▁챙겨주	-9.66666
▁베터리	-9.66684
▁그동안	-9.66711
▁될까요	-9.66717
▁그녀에게	-9.66724
▁두번	-9.66741
스럽	-9.66783
▁느껴지	-9.66802
테니	-9.66803
▁글로	-9.66808
남자	-9.66835
▁살까	-9.669
▁만나기로	-9.66915
▁보다	-9.66926
▁놓치	-9.66966
▁있고	-9.67045
▁먼지	-9.67046
▁아닌가	-9.67054
▁결혼하면	-9.67107
▁보여주	-9.67196
오	-9.67243
▁보낼	-9.67278
▁과일	-9.67323
▁자격증	-9.67404
▁끝났어	-9.67529
▁아니야	-9.6759
▁있다는	-9.67615
하고싶어	-9.67701
▁순간이	-9.67796
▁말까	-9.678
▁심리	-9.68038
▁치료	-9.68054
▁속도	-9.68141
▁꿀	-9.68221
▁밀당	-9.68293
▁썸인	-9.68297
할거야	-9.6833
▁뭐하지	-9.68435
치고	-9.68485
▁저도요	-9.68525
거죠	-9.68537
▁잘못인	-9.68559
스러운	-9.6863
▁중간	-9.68741
▁좋으면	-9.68776
▁생각하면	-9.68806
▁성공하	-9.68814
셨나봐	-9.68815
▁힘들어서	-9.68862
▁싸웠	-9.69006
▁이해해주	-9.69021
▁설	-9.69062
값	-9.69101
바	-9.69122
▁이해가	-9.69128
▁어머	-9.69203
▁절	-9.69229
▁나보다	-9.69267
▁옴	-9.69322
▁청	-9.69413
▁후회하	-9.69426
고싶어	-9.69459
▁아는데	-9.69471
▁기본이	-9.69562
▁착	-9.6958
▁못해요	-9.69598
▁산	-9.69637
▁자신에	-9.69696
▁카드	-9.70007
급	-9.70137
▁모아	-9.70138
▁지울	-9.70157
▁교회	-9.70529
▁거겠죠	-9.70695
▁외	-9.70827
▁올라	-9.70929
지지	-9.70992
▁입을	-9.71025
▁남들	-9.71145
▁이름이	-9.71172
▁신나	-9.71356
▁모르겠	-9.71374
일이	-9.71439
▁악몽	-9.71452
▁돌아	-9.71478
▁하던	-9.7171
▁회사에	-9.71738
력	-9.71741
리고	-9.71859
▁이상형이	-9.71861
년의	-9.7188
▁긴장	-9.72072
▁동생	-9.72091
▁올해	-9.7215
▁들어와	-9.72213
기로	-9.7233
▁오면	-9.72487
시간이	-9.72515
또	-9.72634
수도	-9.72937
▁입어	-9.73025
▁신고하	-9.73247
▁마음으로	-9.73358
▁드려	-9.73427
▁오랜	-9.73666
▁가자	-9.73765
꾸	-9.73769
▁원망	-9.73829
▁귀찮	-9.73967
탈	-9.73978
워질	-9.74167
끼	-9.74424
▁안돼요	-9.74567
▁말하	-9.74784
▁있기	-9.74936
배	-9.75006
▁복잡하	-9.75066
▁피곤	-9.75072
빼	-9.75111
되는	-9.75232
▁갔다	-9.75287
▁아무렇	-9.75352
▁ᅲ	-9.75614
▁놓고	-9.75893
▁혼	-9.76151
결	-9.76171
▁마다	-9.76256
▁혼자서	-9.76297
▁넣	-9.76423
▁신경쓰	-9.76469
였	-9.76482
출	-9.76692
▁여행가	-9.76843
▁노력해	-9.76873
▁간절	-9.76923
▁당황	-9.76955
먹고	-9.77038
▁습관이	-9.77039
록	-9.77095
줬는데	-9.77227
▁상대에	-9.77331
▁별로라	-9.77437
▁많을	-9.77909
▁거의	-9.78084
▁최악	-9.78115
▁방학	-9.78155
▁냄새	-9.78677
▁생각한	-9.78716
▁아프지	-9.78763
▁바다	-9.78763
▁하다	-9.79051
▁나올	-9.7906
▁그럼	-9.79063
▁잡아	-9.79181
▁아닐까	-9.79225
▁나왔	-9.79388
▁방	-9.79432
▁기다리면	-9.79452
▁복잡한	-9.79876
▁자연	-9.80094
▁결혼할	-9.80131
가세요	-9.80167
▁삭제	-9.80176
님	-9.80194
▁우연	-9.80196
▁아름다	-9.80244
량	-9.80289
▁단단	-9.80289
▁맡	-9.8032
▁sns	-9.80321
▁동호회	-9.80321
▁벚꽃	-9.80321
▁봉사활동	-9.80321
▁삼겹살	-9.80321
▁의미부여	-9.80321
▁자괴감	-9.80321
껏	-9.80321
왤	-9.80321
쩍	-9.80321
▁염색	-9.80321
▁현재	-9.80321
▁넓	-9.80321
▁아까워	-9.80321
▁공허함이	-9.80321
▁음악	-9.80321
▁깨끗	-9.80322
▁사회생활	-9.80322
▁고쳐쓰는	-9.80322
▁어필해	-9.80324
▁목표	-9.80328
▁배고파	-9.80329
▁증오	-9.8033
▁딸기	-9.80334
▁발목	-9.80334
▁의욕	-9.80342
▁대출	-9.80358
▁천재	-9.80363
▁실내	-9.80368
▁특별	-9.80374
▁대단하	-9.80376
▁신중	-9.80383
▁장소	-9.80383
▁싸워	-9.80385
▁성향	-9.80392
▁답답할	-9.80393
▁여전	-9.80396
▁진실	-9.80398
▁아름다워	-9.80398
▁달라진	-9.80401
▁다음부터	-9.80405
▁보일러	-9.80407
교통	-9.80414
▁비난	-9.80436
었습니다	-9.80437
▁인내	-9.80439
▁허전하	-9.80457
할때	-9.80482
▁예감	-9.80562
▁별거	-9.80562
▁마실	-9.80581
▁여름	-9.80586
았는데	-9.80599
▁생겼으면	-9.80602
▁그럴까	-9.80603
▁과거	-9.80625
▁욕심	-9.80631
더라구	-9.80651
▁왔나	-9.80654
▁느낌이야	-9.80685
▁이기적인	-9.80714
▁않겠지만	-9.80721
▁나쁘지	-9.80739
▁성공할	-9.8075
줄까	-9.80751
력이	-9.80775
▁호의	-9.80808
▁움직이	-9.80833
▁나아질	-9.80834
개월째	-9.80861
▁고맙다	-9.80914
▁불안해	-9.80929
▁주말에	-9.80948
▁전공	-9.81032
▁맞을까	-9.81062
▁프로포즈	-9.81063
▁고쳐	-9.81081
▁잤어	-9.81087
▁가치	-9.81117
▁헤어졌네	-9.81196
해주는	-9.813
▁봐서	-9.81316
▁곁에	-9.81322
▁허리	-9.8137
▁착한	-9.81373
▁맛난	-9.81411
▁인정받	-9.81526
▁시키	-9.81562
막혀	-9.81563
▁그럼요	-9.81594
▁보이지	-9.81599
은연	-9.81614
▁가능해요	-9.81628
하지만	-9.8167
▁사람만	-9.81726
하나	-9.81766
▁한다	-9.81799
▁이어	-9.81801
▁호	-9.81819
▁가능할까	-9.81833
▁표현하는	-9.81843
▁잘하	-9.81932
▁운전	-9.81939
▁지워	-9.82002
▁신혼	-9.82026
려구	-9.82027
▁썸인가	-9.82062
▁술이	-9.82075
▁선생님이	-9.82109
▁행복해질	-9.82115
▁한거	-9.82249
▁못했	-9.8225
▁나한테만	-9.82268
▁살면	-9.8229
▁예	-9.82296
▁내보세요	-9.823
▁기간이	-9.82304
▁떨어지	-9.82396
▁연애에	-9.82414
▁나가기	-9.82463
▁친해지는	-9.82474
▁해야겠다	-9.82506
하겠습니다	-9.82566
▁가져보	-9.82569
레	-9.8262
▁선배	-9.82657
▁짧지	-9.82659
다가도	-9.82754
척	-9.82833
▁해야할지	-9.8285
▁많아서	-9.82882
▁당했어	-9.82892
▁잘못된	-9.82901
▁좋아하시	-9.82933
▁입지	-9.83039
▁남사친이	-9.83045
▁해야할까	-9.83088
▁왔습니다	-9.83104
▁일하는	-9.83106
웠	-9.83304
▁바라지	-9.83362
▁쓰지	-9.83371
▁사고	-9.83417
▁좋아한다	-9.8346
▁안되겠지	-9.83572
▁붙	-9.83585
오면	-9.83628
▁빌	-9.83657
▁되었나	-9.83914
▁타이밍	-9.83927
▁되기	-9.84264
▁해보	-9.84285
▁궁금	-9.84296
▁맞아	-9.84384
▁가능하	-9.84431
▁놈	-9.84454
▁싶네	-9.84511
▁두근거리겠	-9.84744
만해도	-9.84882
▁까먹	-9.8504
을텐데	-9.85146
▁찾는	-9.85179
▁왔네	-9.85258
▁찾아오	-9.8547
▁잊으	-9.8549
▁무시하는	-9.85499
▁나을까	-9.85516
▁맞나	-9.8562
아지	-9.85715
니가	-9.85779
네여	-9.8579
▁반대	-9.85885
일까요	-9.8589
▁당신만	-9.86018
▁주변에	-9.86023
▁마셔야	-9.86182
▁꺼	-9.86199
▁끝에	-9.86261
▁시원하	-9.86298
▁어렵네	-9.8636
▁줄까	-9.86497
▁보내주	-9.86543
▁심한	-9.86621
▁따뜻하	-9.86649
▁끝났	-9.8701
▁지치	-9.87038
▁복잡	-9.87043
▁가족이	-9.87343
▁시작하	-9.87484
▁좋아하는거	-9.87572
로부터	-9.87713
▁인정하	-9.87856
반	-9.8791
▁수다	-9.87943
▁부자	-9.88039
▁기다리지	-9.88069
올	-9.881
▁이별하고	-9.88118
▁멋있	-9.88159
▁헤어지자	-9.88207
절	-9.88474
방법	-9.88566
▁행복해지	-9.88736
하는거	-9.88816
▁무엇	-9.89154
▁썸타	-9.89433
▁이직	-9.8947
▁헬스장에	-9.89494
▁고치	-9.89512
▁부담스러워	-9.89627
▁진심이	-9.89673
▁디	-9.89722
▁마음만	-9.89742
▁좋을까요	-9.8994
개	-9.90269
2	-9.90269
폰	-9.9038
학기	-9.9051
▁타이밍이	-9.90601
▁울적	-9.90615
숙	-9.90689
▁같지	-9.90694
▁늘	-9.90791
▁죽고	-9.90859
▁세상이	-9.90918
▁스타일이	-9.91064
몸	-9.91098
▁말해주	-9.9111
▁잘해주는	-9.91275
하겠죠	-9.91378
합	-9.9139
갑니다	-9.91404
했나	-9.91486
역	-9.9159
위	-9.91642
둘	-9.91693
▁사람인가	-9.91743
▁전남친이	-9.91761
죄	-9.91951
▁사람인	-9.91994
졌으면	-9.92105
추	-9.92133
채	-9.92218
▁끝일	-9.92221
겠습니다	-9.92234
▁않을까	-9.92277
▁같아서	-9.92289
거리	-9.92502
▁빌어	-9.92651
▁단계	-9.92678
카드	-9.92713
▁온다	-9.9278
생활	-9.92873
▁나온다	-9.92907
▁부탁해	-9.92967
▁좋았	-9.92993
▁바꿔	-9.93089
▁의외	-9.93202
▁헤어	-9.93395
▁가치관	-9.93402
▁궁금하	-9.93411
우면	-9.93511
▁쓰이	-9.93579
▁없을까	-9.93612
▁받으	-9.93789
▁버	-9.93983
▁흔들리	-9.94059
마시면	-9.94158
만한	-9.9437
▁있으니	-9.94448
▁흘렀	-9.9459
드릴	-9.94607
▁같다	-9.94674
▁복잡하겠	-9.94688
▁보니	-9.94706
▁나눠	-9.94855
▁현실적	-9.94855
▁뭔	-9.94909
▁선생님	-9.94916
▁큰일	-9.94926
법	-9.94959
되면	-9.95072
▁이뤄	-9.95085
▁인생이	-9.95099
▁뻔	-9.95252
▁울	-9.95344
더	-9.95397
려주세요	-9.95559
려나	-9.95624
없는	-9.95633
▁몇일	-9.95648
▁연락해보	-9.95974
▁잘못이	-9.96025
세	-9.96144
▁가능해	-9.96199
▁없었	-9.96437
▁영원	-9.9644
▁힘드신가	-9.96505
데요	-9.96566
▁젖	-9.96642
▁결심	-9.96705
플	-9.96712
▁무섭	-9.96803
리지	-9.96806
빛	-9.96902
아서	-9.96906
례	-9.96908
▁잊혀질	-9.96926
▁갚	-9.96931
염	-9.96987
▁A	-9.96987
▁어둠	-9.96987
뻑	-9.96987
▁가늠	-9.96987
▁도대체	-9.96987
▁무릎	-9.96987
▁애틋	-9.96987
▁어젯밤	-9.96987
▁지겨워	-9.96987
▁짱	-9.96987
▁출퇴근	-9.96987
▁콩깍지	-9.96987
▁합격	-9.96987
▁후유증이	-9.96987
봅시다	-9.96987
욱	-9.96987
킁	-9.96987
푼	-9.96987
▁앉	-9.96987
▁여드름	-9.96987
▁핑계	-9.96987
▁냉장고	-9.96988
▁잇몸	-9.96988
▁단둘이	-9.96988
▁파혼	-9.96988
▁인턴	-9.9699
▁추석	-9.9699
▁평온	-9.9699
▁제주도	-9.96991
▁데려가	-9.96992
▁버티	-9.96992
▁야경	-9.96992
▁괴로워	-9.96994
▁안경테	-9.96996
▁마주쳐	-9.96996
▁분노	-9.96996
▁잃어버	-9.96998
▁커피향	-9.96998
▁차라리	-9.96999
개월이	-9.96999
▁축복	-9.97
▁축하합니다	-9.97001
▁심경	-9.97001
▁공통	-9.97001
▁아빠	-9.97004
▁의견	-9.97004
▁통화	-9.97005
▁애교	-9.97006
▁견디	-9.97007
▁느껴져	-9.97007
▁앞머리	-9.97009
▁영화관	-9.97011
▁매너	-9.97014
테리	-9.97018
▁버릴	-9.97019
▁언니	-9.97019
▁붙여	-9.97023
▁투자	-9.97024
▁우린	-9.97026
▁까먹었다	-9.97033
▁넘었네	-9.97036
▁조용	-9.97037
▁15	-9.9704
▁외로움	-9.97041
▁시간표	-9.97046
▁사업	-9.97047
▁받아들이기	-9.97047
▁흘려	-9.97048
▁잡으세요	-9.97062
▁공시	-9.97075
▁아님	-9.97077
▁기준	-9.9708
▁정리될	-9.97082
▁노려	-9.97082
▁모으	-9.97095
▁불편해	-9.97101
~~	-9.97101
▁장점	-9.97104
▁무기력	-9.97114
▁추운	-9.97123
▁기울여	-9.97138
▁되었습니다	-9.97147
▁건조	-9.97154
▁주제	-9.97162
▁응원해요	-9.97224
▁길러	-9.97233
▁같음	-9.97248
▁더러워	-9.97258
주고	-9.97265
▁주식	-9.97267
▁불공평해	-9.9728
▁말아야	-9.97285
▁행운	-9.97289
▁짜	-9.97365
▁행복할까	-9.97366
▁부탁	-9.97419
▁잘해줘	-9.97423
▁라면	-9.97451
▁많다	-9.97463
▁연휴	-9.97537
▁멋지	-9.97597
▁태어나	-9.97598
▁좋아했는데	-9.97638
▁일들이	-9.97664
▁싫어하는	-9.97711
▁베	-9.97714
있어	-9.9772
일차	-9.9774
▁충격	-9.97773
▁센스	-9.97781
▁성형	-9.97783
▁빠져	-9.97792
▁시선	-9.97838
▁하루에도	-9.97845
▁돌아가고	-9.9786
▁답이	-9.9794
▁지나간	-9.97957
▁생각했는데	-9.98002
하니까	-9.98023
▁결정할	-9.98034
▁영원한	-9.98036
▁그저	-9.98038
▁안되는데	-9.98039
▁도와줘	-9.98054
▁뭐할까	-9.98108
▁안되나	-9.9812
▁생각날	-9.98173
거려	-9.98205
▁그런가	-9.9822
우니까	-9.98239
▁언제까지	-9.98344
번호를	-9.98358
▁아니지만	-9.98392
오네	-9.98507
▁고백해도	-9.98515
았어	-9.98648
▁왔으면	-9.9866
▁철	-9.98664
망했어	-9.98667
▁걸려	-9.9867
▁아플	-9.98695
▁자신과	-9.98717
▁변한	-9.98733
▁중요한데	-9.98749
볼	-9.98769
▁차가워	-9.98808
▁당신에게	-9.98847
▁남자한테	-9.98856
되는데	-9.98954
▁전기	-9.98973
▁크기	-9.99035
이별	-9.99073
▁부담스러워하	-9.99174
▁표	-9.99191
▁파도	-9.99195
▁다르겠	-9.99235
▁사랑받고	-9.9934
▁여자친구한테	-9.99468
▁있을까요	-9.99472
렸	-9.99505
▁심장	-9.99527
▁무시해	-9.99666
있으신가	-9.99695
▁돌아올	-9.99776
▁찌	-9.99813
▁모르게	-9.99905
▁참는	-9.99915
▁포기하는	-9.99919
▁말라고	-9.99953
▁달리	-9.99962
▁이어나가는	-9.99964
▁상의	-10.0007
▁하는건	-10.0008
▁봤어	-10.002
▁고장	-10.0021
▁다가오	-10.0022
▁올까	-10.003
▁회	-10.0033
해져	-10.0036
▁위기	-10.0043
▁찍어	-10.0047
▁절약	-10.0049
지기	-10.0051
▁애매하	-10.0051
먹기	-10.0057
▁깨요	-10.0065
▁경	-10.008
▁가치관이	-10.0081
▁군	-10.0082
▁칭찬해주	-10.0085
▁물리적	-10.0088
▁바꿀까	-10.0091
▁받기	-10.0091
▁결	-10.0095
▁그러는	-10.0101
▁바꿔야	-10.0102
▁운동하	-10.0114
▁신경쓰이	-10.0117
▁말해줘	-10.0118
▁속은	-10.0118
봐도	-10.013
▁있는거	-10.0135
▁웃으면	-10.0148
나서	-10.0149
▁인스타	-10.0166
타기	-10.0207
▁준비중	-10.0217
되겠	-10.0219
▁줄여	-10.0229
▁알아가	-10.023
▁걱정되겠	-10.0233
▁연애하는	-10.0236
▁위험	-10.0237
야돼	-10.0241
▁의지	-10.0242
▁들으	-10.0244
▁도전해	-10.0258
▁알았	-10.0275
▁남았	-10.0277
▁당황했	-10.0279
▁바라는	-10.0284
▁걸음	-10.0297
▁있음	-10.0297
담	-10.0307
▁정확하	-10.0317
월	-10.0323
▁생활	-10.0327
▁반복	-10.033
▁연애하고	-10.0339
▁받았	-10.0343
이길	-10.0357
▁얻	-10.0376
뿐이	-10.0384
▁불편	-10.0393
▁편해	-10.0398
▁지우	-10.04
▁됐	-10.0409
▁변명	-10.0413
▁사람인데	-10.0427
▁얼굴이	-10.0438
▁전화하는	-10.0468
해봐요	-10.0479
셨나	-10.0486
▁받아야	-10.0494
▁배려	-10.0496
▁맛있어	-10.0529
▁헤어지는	-10.0529
국	-10.0537
▁충전하	-10.0553
▁이루	-10.0591
▁고고	-10.0595
▁아침이	-10.0597
▁화가	-10.0598
▁사람일	-10.0614
▁맞을	-10.062
▁성장	-10.0622
▁첫사랑이	-10.0639
타	-10.0664
▁향	-10.0671
▁힘드시겠	-10.0678
▁통	-10.0689
▁아기	-10.069
기간	-10.0693
들에게	-10.0696
▁사귀면	-10.0703
▁삭제하는	-10.0708
▁존중해	-10.0716
▁가만	-10.0729
▁나아	-10.0743
▁다양하	-10.0747
▁뭐하는	-10.0766
▁솔직	-10.077
남	-10.0794
백	-10.081
▁지는	-10.0834
▁늦어	-10.0844
하려	-10.0852
▁헤어졌	-10.0853
▁괜찮다	-10.086
▁비슷한	-10.0888
▁건들	-10.0895
▁싱숭생숭	-10.0906
▁싸움	-10.0915
▁서	-10.0917
▁그만하고	-10.0929
체	-10.0953
▁길어	-10.0962
짓	-10.0982
▁늘어	-10.099
유	-10.0994
▁하시	-10.0996
▁샤워	-10.1016
▁문신	-10.1032
강	-10.104
▁잠수이별	-10.1048
관계	-10.105
으니	-10.1056
▁낼	-10.1068
매일	-10.1076
드려요	-10.108
불	-10.1086
밥	-10.1096
친	-10.1098
둔	-10.1099
번호	-10.1106
받았어	-10.1116
▁고백하	-10.1117
▁갔	-10.1117
산	-10.1122
▁친구라	-10.1139
청	-10.114
조	-10.1141
목	-10.1143
지마	-10.1146
▁해드	-10.1146
극	-10.1149
떨	-10.1149
봤는데	-10.1152
있습니다	-10.1155
궁	-10.1164
▁사람들에	-10.1166
깨	-10.1167
있음	-10.1168
놔	-10.1175
옴	-10.1175
▁알려	-10.1177
야겠지	-10.1179
▁째	-10.1186
설	-10.1202
▁달라지	-10.121
▁있었을	-10.1229
▁성	-10.1233
▁삼	-10.1237
▁소식	-10.1241
▁미치겠	-10.1247
▁참다	-10.1267
▁취향	-10.1278
▁나타	-10.1282
▁연락해보는	-10.1299
▁애매	-10.1299
가지	-10.1311
▁힘들고	-10.1312
있지	-10.1314
물	-10.1316
▁거지	-10.1317
▁비슷	-10.1322
▁못하면	-10.1325
▁누	-10.1325
주지	-10.1326
▁남은	-10.1339
▁회식	-10.1341
하려면	-10.1343
▁받아들	-10.1347
▁않나	-10.1352
관	-10.1363
▁차분하	-10.1365
▁때문이	-10.1366
▁과식	-10.1383
▁아니라는	-10.1389
독	-10.1412
▁보일	-10.1427
친구와	-10.1471
▁멋	-10.1472
▁기억해	-10.1476
해보고	-10.1481
▁닮	-10.1482
▁잘해	-10.1493
바이	-10.151
▁때문	-10.1511
▁헤어져	-10.1522
▁때려	-10.1545
▁겨울	-10.1555
밖	-10.1562
▁어떨까	-10.1578
▁평	-10.158
시는	-10.1588
지네	-10.1589
없어	-10.1592
▁유학	-10.1597
▁사정	-10.1607
▁가능하다	-10.1608
뿐	-10.1618
이건	-10.162
▁쓸데	-10.162
▁돌리	-10.1625
▁받아보	-10.1641
본	-10.1646
▁짜증	-10.1647
▁마음인	-10.1667
랬	-10.1669
정도	-10.167
▁헷갈	-10.1672
▁스타	-10.1672
▁취해	-10.1675
▁여기까지	-10.1677
▁외국	-10.1683
▁보이는	-10.1689
▁사라질	-10.1692
▁어떨	-10.1693
▁녹	-10.1695
리면	-10.1696
▁택시	-10.1697
즈	-10.1699
▁셀	-10.1699
▁슬픔	-10.1699
흥	-10.1699
▁금수저	-10.1699
▁기프트콘	-10.1699
▁낚시	-10.1699
▁낳	-10.1699
▁놀이동산	-10.1699
▁뒷	-10.1699
▁뒷담화	-10.1699
▁밟	-10.1699
▁비싼	-10.1699
▁신뢰	-10.1699
▁아름답	-10.1699
▁아이스크림	-10.1699
▁염탐하	-10.1699
▁왠	-10.1699
▁웬수	-10.1699
▁유효기간	-10.1699
▁축의금	-10.1699
강습	-10.1699
닝	-10.1699
바퀴	-10.1699
벅	-10.1699
쫌	-10.1699
츠	-10.1699
팸	-10.1699
▁결혼적령기	-10.1699
▁느낄	-10.1699
▁서류에서	-10.1699
▁슈퍼	-10.1699
▁유부남	-10.1699
▁헛	-10.1699
▁아팠	-10.1699
▁흥미	-10.1699
▁몸무게	-10.1699
▁발렌타인데이	-10.1699
▁강렬	-10.1699
▁월요일	-10.1699
▁배고프	-10.1699
▁형편	-10.1699
▁첫인상	-10.1699
▁베풀	-10.1699
▁맞추	-10.1699
▁생리통	-10.1699
▁두려움	-10.1699
▁시골	-10.1699
▁누굴	-10.1699
▁최근	-10.1699
▁소개시켜	-10.1699
▁신혼여행	-10.1699
▁치유	-10.17
▁간단하	-10.17
▁단호	-10.17
▁방문	-10.17
▁일어날	-10.17
▁인공	-10.17
▁감싸	-10.17
▁늦잠	-10.17
▁실례	-10.17
▁그리울	-10.17
▁30	-10.17
▁기다림	-10.17
▁무너져	-10.17
칼로리	-10.1701
▁구속	-10.1701
▁모자라	-10.1701
▁걱정된다	-10.1701
▁허전한	-10.1701
▁제자리	-10.1701
▁침대	-10.1702
▁조카	-10.1702
▁간식	-10.1702
▁아껴	-10.1703
▁깨닫	-10.1703
▁크시겠	-10.1703
▁빠른	-10.1703
▁참견	-10.1703
▁신경쓰여	-10.1704
▁부담스러운	-10.1704
▁놀아줘	-10.1704
▁빨래	-10.1704
▁깨달음	-10.1705
▁동감	-10.1706
▁여우	-10.1707
▁따듯	-10.1707
▁차갑게	-10.1707
▁답답하네	-10.1709
▁후배	-10.1709
활용	-10.1709
▁필름	-10.1709
▁반갑	-10.171
▁정신적	-10.171
▁부부	-10.171
▁멀어지	-10.171
▁못참고	-10.1711
▁끝낼	-10.1712
▁대우	-10.1712
▁서운해	-10.1712
▁한숨만	-10.1712
▁나누	-10.1713
▁질질	-10.1714
주째	-10.1715
▁이별했습니다	-10.1716
년연애	-10.1716
▁책임	-10.1716
▁아파트	-10.1716
▁한국	-10.1717
▁좋더라	-10.1718
▁이불	-10.1719
▁세워	-10.172
▁갔는데	-10.172
▁나갔어	-10.1721
▁소주	-10.1721
▁부럽네요	-10.1722
▁지낼	-10.1722
▁좋았는데	-10.1724
▁망상	-10.1725
여자	-10.1728
▁미워하지	-10.1729
막힌	-10.173
▁잊는다는	-10.173
▁자취	-10.1731
▁중국어	-10.1733
▁꺼내	-10.1733
침이	-10.1733
▁줄어들	-10.1734
▁수영	-10.1735
▁이성으로	-10.1735
▁행복해보여	-10.1735
▁방식	-10.1736
▁안녕하세요	-10.1736
▁아마	-10.1736
▁웃어보세요	-10.1736
▁전세	-10.1739
▁매력이	-10.1739
▁일요일	-10.1742
▁먼	-10.1742
▁없으니까	-10.1743
느냐	-10.1744
▁피곤한	-10.1745
▁점심	-10.1745
▁챙기	-10.1746
▁포장	-10.1746
▁사겨도	-10.1753
▁괜찮다면	-10.1753
▁이겨내	-10.1755
▁있었으면	-10.1759
▁해야돼	-10.1761
▁자는	-10.1762
▁공감	-10.1765
짐에	-10.1765
했지만	-10.1767
▁우선	-10.1769
▁후회해	-10.1771
▁똑똑해	-10.1774
▁아닌거	-10.1783
▁널	-10.1784
▁땅	-10.1784
▁찼	-10.1784
▁쓸데없	-10.1787
▁흘리	-10.1791
▁다툼	-10.1792
▁패턴	-10.1792
▁프로필	-10.1793
▁차례	-10.1796
▁화내	-10.1796
▁기울이	-10.1803
▁나나	-10.1805
셨네요	-10.1807
▁들어줄	-10.1809
신이	-10.1809
▁필요했을	-10.181
▁키워	-10.1811
▁포근	-10.1811
먹	-10.1817
나게	-10.1821
▁당당	-10.1827
▁끄는	-10.1842
때도	-10.1845
▁팔아	-10.185
▁참았어	-10.185
해줄	-10.1857
▁여자와	-10.1858
▁오려나	-10.186
▁머릿속	-10.1865
맥이	-10.1867
시다	-10.1878
할지도	-10.1884
▁안좋은	-10.1884
▁마음이라	-10.1885
▁힘든데	-10.1887
▁어색해	-10.1887
▁위해서	-10.1891
▁지금보다	-10.1892
될까	-10.1892
▁쓸	-10.1893
▁슬프게	-10.1894
▁알기	-10.1894
▁높아	-10.19
▁짠	-10.19
▁사과하	-10.1903
▁아무말	-10.1905
▁교	-10.1908
▁먹었어	-10.1913
▁말했어	-10.1914
▁케이스	-10.1917
▁가려	-10.1924
▁이해할	-10.1933
왔는데	-10.194
하시	-10.1954
▁사수	-10.1958
우는	-10.196
▁없지만	-10.1972
▁하셨나	-10.1977
는구나	-10.1979
▁편하고	-10.1983
▁끝인	-10.1984
려도	-10.1987
00	-10.1987
지가	-10.199
▁빨	-10.1994
▁클	-10.2004
▁여자에게	-10.2006
▁하루에	-10.2008
▁주말이네	-10.2009
래요	-10.2021
▁될거예요	-10.2022
▁견	-10.2022
▁아니었나	-10.2027
정이	-10.2037
▁업	-10.2043
▁해주고	-10.2044
▁사랑하기	-10.2048
▁이어주	-10.2048
▁여사친이	-10.205
▁그만두	-10.2055
▁위험해	-10.2061
버는	-10.2061
▁일부	-10.2065
▁직	-10.2085
▁좋으시	-10.2098
▁답답하다	-10.211
▁되겠지	-10.2116
▁알았어	-10.2118
▁맞지	-10.212
▁적응해야	-10.2121
▁사람이니까	-10.2123
▁약이	-10.2132
▁정리해	-10.2134
▁질리	-10.2139
▁건가요	-10.2142
▁다가가는	-10.2159
▁점이	-10.216
▁덜어	-10.2168
▁흐르는	-10.2174
▁했어요	-10.2178
▁남았나봐	-10.2186
▁이쁜	-10.2191
▁어떻게해	-10.2192
해질	-10.2193
▁바보같	-10.2194
▁결혼한	-10.2197
▁나가야	-10.2201
그	-10.2205
▁재미없	-10.221
▁말해보는	-10.2211
▁ᄒᄒ	-10.2211
▁간사하	-10.2231
▁좋아해주	-10.2231
스러워	-10.2238
봤	-10.2255
▁보여요	-10.2276
▁연속	-10.2285
▁깔끔	-10.2309
보며	-10.2314
▁용서	-10.2331
▁함께할	-10.2332
▁간절하	-10.2334
하던	-10.2339
▁착각이	-10.234
▁지켜보	-10.2343
버렸어	-10.2367
▁재밌다	-10.2371
▁보이네	-10.2389
인거	-10.2399
▁일에	-10.2402
있어요	-10.241
함이	-10.2418
석	-10.2422
▁좋아하지	-10.2425
▁성적	-10.2432
들어	-10.2436
▁반장	-10.2438
▁충전기	-10.2442
고싶다	-10.2447
▁시작해보	-10.2454
▁결정이었	-10.2469
▁적어보	-10.2471
▁맞춰가	-10.2483
각이	-10.249
▁울적해	-10.2541
▁늦은	-10.2543
▁옆	-10.2576
▁쌓	-10.2577
▁재밌는	-10.2586
▁사내	-10.26
▁아이돌이	-10.2608
▁끼	-10.2612
▁끊는	-10.263
▁고치고	-10.2638
한거	-10.2642
셨	-10.2644
▁그립	-10.2648
▁부족한가	-10.265
▁읽어	-10.2657
▁먹기	-10.2671
▁확실하	-10.2678
▁안하지	-10.2686
맘이	-10.2691
들고	-10.2694
▁몰랐어	-10.27
▁그분에	-10.2702
▁지났	-10.2706
너무	-10.2707
하셨	-10.2708
진다	-10.2728
▁정상	-10.2741
야하나	-10.2745
해졌	-10.2751
▁전화가	-10.2757
▁하니까	-10.2759
▁중고	-10.2762
같이	-10.2764
▁고르	-10.2765
▁참지	-10.2783
인가요	-10.279
▁괜찮아지	-10.2791
▁서운	-10.2818
셨어	-10.2819
▁삭제하	-10.2822
ᄒᄒ	-10.2827
버려	-10.2849
▁카	-10.2893
▁높	-10.2911
▁성장하	-10.2913
들면	-10.2917
▁않겠	-10.2917
▁못하	-10.2918
▁만들었	-10.2926
야할까	-10.2927
▁모아야	-10.2945
▁다르지	-10.2948
치는	-10.2979
으려면	-10.299
▁축하해	-10.2992
▁동생이	-10.2995
선이	-10.3013
들은	-10.3025
▁후회할까	-10.3027
▁잘해주	-10.3032
▁보게	-10.3036
었다	-10.304
▁오늘이	-10.3041
▁설레는	-10.3053
▁미치	-10.3072
▁살지	-10.3073
▁아니지	-10.3079
▁미련없	-10.3084
▁있다	-10.3085
파	-10.3102
▁취직	-10.3102
▁욕해	-10.3109
▁못하겠	-10.3114
사드리	-10.3115
▁버려야	-10.3117
▁고백해	-10.3118
곳	-10.3132
▁쓰면	-10.3136
▁사랑하는지	-10.3139
에도	-10.3148
▁기술	-10.3181
▁심어	-10.3188
▁도와	-10.3198
이라니	-10.3206
▁되었네	-10.3212
▁내요	-10.322
▁좋을거	-10.3227
▁뒤에	-10.3234
▁치	-10.3236
능	-10.324
▁그때	-10.3245
▁사랑해주	-10.3265
▁학기	-10.327
▁상대방에	-10.3293
이고	-10.3293
▁일년	-10.331
해야겠죠	-10.3314
길게	-10.3316
▁연습해	-10.3318
▁잊어야	-10.3323
하나봐	-10.3327
▁행동이	-10.3332
씨	-10.3338
복이	-10.3339
▁겨	-10.3341
군	-10.3347
▁냉	-10.3348
▁있어야	-10.3369
▁배워보	-10.3384
▁마셨	-10.3393
▁해줄	-10.3394
▁예뻐지	-10.3394
오래	-10.3396
▁은퇴	-10.3412
라서	-10.3412
한건가	-10.3418
▁꿈같	-10.3421
▁술마시	-10.3436
▁풀렸	-10.3441
문이	-10.3444
▁나네	-10.3445
그래	-10.3453
▁공부하면	-10.3454
▁끌	-10.3489
아주	-10.3502
문	-10.3511
하느	-10.3512
경	-10.3515
좋아하는	-10.3531
인걸까	-10.3533
사람은	-10.3544
▁용서하	-10.3555
▁해봐	-10.3561
5	-10.3562
을거예요	-10.3563
회	-10.3567
어머	-10.3572
낸	-10.3574
분이	-10.3588
쪄	-10.3593
옷	-10.3615
욕	-10.3618
▁바꿀	-10.3624
처리	-10.3633
'	-10.3635
뒀	-10.3635
높이	-10.3642
하겠네	-10.3645
▁생긴다	-10.3659
분들	-10.3672
판	-10.3673
한번	-10.3681
▁걱정되	-10.3683
▁단순	-10.3703
모	-10.3711
언	-10.3723
▁혼자인	-10.3724
▁결혼하고	-10.3742
중입니다	-10.3745
▁놀랐	-10.375
▁왕따	-10.3754
조심하세요	-10.3754
머	-10.376
▁흐르	-10.377
몰	-10.3778
▁연애하면	-10.3779
외	-10.3789
▁끝인가	-10.3795
▁일하	-10.3797
달이	-10.3812
건데	-10.3819
▁초대하	-10.3825
▁이용	-10.3826
▁받아들여야	-10.3836
▁사귀자	-10.3863
비가	-10.3886
▁공개	-10.3909
▁막히	-10.3909
▁뽑	-10.3912
였을	-10.3934
게임	-10.3948
▁반에	-10.3964
왔습니다	-10.3966
▁반응	-10.3967
양해	-10.3986
▁어울	-10.3987
아는데도	-10.3994
▁헤아	-10.3997
▁집중하	-10.4007
▁내려놓	-10.4016
▁싶다고	-10.4033
▁읽어보	-10.4037
▁사랑했	-10.4047
장이	-10.4049
▁아깝	-10.4052
▁타다	-10.4089
▁기원	-10.4091
어져	-10.4092
▁안됐	-10.4095
▁어쩌	-10.411
이렇게	-10.4124
▁죽어	-10.4129
▁만나보	-10.4131
▁어떻	-10.4131
▁점심시간	-10.4136
▁드릴	-10.4144
▁20	-10.4147
▁무리	-10.4153
▁한다는	-10.4155
▁잡았	-10.4162
찰	-10.4162
▁흘러	-10.4167
▁낮	-10.4168
운을	-10.417
냥	-10.4171
▁액	-10.4173
거니	-10.4179
▁떠오르	-10.4181
치기	-10.4182
▁필	-10.4184
탕	-10.4185
정규직	-10.4194
념	-10.4195
▁메뉴	-10.4199
▁땡	-10.4199
▁애프터	-10.4199
▁팀	-10.4199
▁득템	-10.4199
팬	-10.4199
B	-10.4199
▁가볍	-10.4199
▁각질제거	-10.4199
▁겪	-10.4199
▁노트북	-10.4199
▁눈썹	-10.4199
▁당분간	-10.4199
▁뒷감당	-10.4199
▁드라이브	-10.4199
▁리폼	-10.4199
▁맴	-10.4199
▁모쏠	-10.4199
▁베트남	-10.4199
▁보이스피싱	-10.4199
▁서툴러	-10.4199
▁소액결제	-10.4199
▁쉴	-10.4199
▁엮	-10.4199
▁유부녀	-10.4199
▁이벤트	-10.4199
▁입냄새	-10.4199
▁잠재력	-10.4199
▁지하철에	-10.4199
▁체육대회	-10.4199
▁컴퓨터	-10.4199
▁트라우마	-10.4199
▁특징	-10.4199
▁한켠	-10.4199
▁현금영수증	-10.4199
▁화이트데이	-10.4199
긁	-10.4199
꽤	-10.4199
율	-10.4199
지긋	-10.4199
찐	-10.4199
툰	-10.4199
펑	-10.4199
▁곱	-10.4199
▁낭비	-10.4199
▁사춘기	-10.4199
▁새출발	-10.4199
▁설렜	-10.4199
▁착잡하	-10.4199
▁층간소음	-10.4199
▁하우스웨딩	-10.4199
쌈	-10.4199
힐	-10.4199
▁꾹꾹	-10.4199
▁무언가	-10.4199
릅	-10.4199
▁브랜드	-10.4199
▁쌩얼	-10.4199
▁애정표현	-10.4199
▁케익	-10.4199
▁관련	-10.4199
▁어리석	-10.4199
▁침묵	-10.4199
▁뱃살	-10.4199
▁확률	-10.4199
▁비하하지	-10.4199
▁셀프웨딩	-10.4199
▁셀프	-10.4199
▁호칭	-10.4199
▁손가락	-10.4199
▁즐겁	-10.4199
▁수면양말	-10.4199
센터	-10.4199
▁베프	-10.4199
▁로봇	-10.4199
▁블록	-10.4199
▁농담	-10.4199
▁희생양	-10.4199
▁미용실	-10.4199
▁찢어지	-10.4199
▁월세	-10.4199
▁피부관리	-10.4199
▁패션	-10.4199
▁실패	-10.4199
▁똥차	-10.4199
▁격려	-10.4199
▁무의식	-10.4199
▁고시원	-10.4199
▁맞춤법	-10.42
▁혼술	-10.42
▁미안하다	-10.42
▁예능	-10.42
▁제정신	-10.42
▁학벌	-10.42
▁자장가	-10.42
▁당첨	-10.42
폭력	-10.42
▁등산	-10.42
▁손편지	-10.42
▁축제	-10.42
▁청결	-10.42
▁겁나	-10.42
▁무관심	-10.42
▁개념	-10.42
▁망했다	-10.42
▁작동	-10.4201
▁빈자리	-10.4201
▁취미생활	-10.4201
▁기다려야	-10.4201
▁치매	-10.4201
콜록	-10.4201
▁잡념	-10.4201
▁든든하	-10.4201
▁명품	-10.4202
▁술한잔	-10.4202
▁분담	-10.4202
▁실행	-10.4202
▁알바생	-10.4202
▁멀리	-10.4202
▁유행	-10.4202
▁소유	-10.4202
▁변덕스럽	-10.4202
▁무모	-10.4202
▁선택이었을	-10.4202
▁지압	-10.4202
▁짜증날	-10.4203
▁비밀연애	-10.4203
▁변화시켜	-10.4203
▁쌓여	-10.4203
▁장갑	-10.4204
▁속박	-10.4204
▁고마운	-10.4204
▁찾아온	-10.4204
▁원인이	-10.4204
▁금연	-10.4204
▁주량	-10.4205
▁난방	-10.4205
▁아쉬운	-10.4205
▁추천해줘	-10.4205
▁면도기	-10.4205
▁미치겠습니다	-10.4205
▁똑같아	-10.4205
▁주름	-10.4206
▁입학	-10.4206
▁배울까	-10.4206
▁배울	-10.4206
▁달라져	-10.4206
▁정해져	-10.4206
▁끊겼	-10.4207
▁소심해	-10.4207
▁화가나	-10.4207
▁연애세포	-10.4207
▁갚아	-10.4208
▁두근거려	-10.4208
▁다듬	-10.4208
▁대단	-10.4208
▁좋아한대	-10.4209
▁잊혀질까	-10.421
▁좋아해줬으면	-10.421
▁어리게	-10.421
▁심해지는	-10.421
쟁이	-10.421
▁떠날	-10.4211
▁변신	-10.4211
▁나가볼까	-10.4211
▁따져	-10.4212
▁돌아와	-10.4212
▁전역	-10.4213
▁오셨	-10.4213
▁아쉬움이	-10.4214
▁오바	-10.4215
▁기다릴게요	-10.4215
구경	-10.4215
▁목적	-10.4217
▁필기	-10.4217
▁아물	-10.4218
▁썸일	-10.4219
▁좋았으면	-10.422
▁중요하니까	-10.422
▁태연	-10.4222
▁미치겠어	-10.4222
재인가	-10.4223
▁일방적	-10.4223
▁한강	-10.4225
▁표현하기	-10.4225
차곡	-10.4226
▁진리	-10.4226
▁위로해줄	-10.4226
▁미화되기	-10.4226
▁무리하지	-10.4227
개월차	-10.4227
▁마음정리	-10.4228
▁치워	-10.4228
▁두셨네요	-10.4229
▁싸운	-10.4232
▁탔	-10.4232
▁도망가	-10.4233
▁보냈네	-10.4233
▁아부	-10.4234
▁무뎌지	-10.4234
▁보란	-10.4235
초록	-10.4235
▁물질	-10.4236
▁이별준비	-10.4238
여행	-10.424
▁수업	-10.424
▁고백할	-10.424
체인	-10.4243
추적	-10.4244
▁어른	-10.4245
▁연락왔어	-10.4246
▁보답	-10.4246
▁무뎌질	-10.4249
으신가	-10.4249
▁우연히	-10.4249
▁통장	-10.4249
종료	-10.425
▁잊으려고	-10.4251
▁별로야	-10.4253
▁어렵다	-10.4253
▁성공적	-10.4255
디오	-10.4257
▁반가워요	-10.4258
▁성별	-10.4261
▁수능	-10.4262
▁짜증나네	-10.4263
▁효	-10.4265
▁쌓인	-10.4266
▁친해질	-10.4267
▁공부할	-10.4267
▁좋긴	-10.4267
▁궁금할	-10.4268
▁걸린	-10.4273
▁정답	-10.4273
▁들까	-10.4273
▁동성	-10.4277
탔어	-10.4288
▁돌아서	-10.4291
▁연상	-10.4292
▁가스	-10.4294
▁싶으면	-10.4296
▁뭐하냐	-10.4298
▁손톱이	-10.4299
▁숙제	-10.4302
▁지우고	-10.4302
▁옷이요	-10.4303
▁들리	-10.4303
▁빠졌	-10.4303
▁한약	-10.4304
▁구멍이	-10.4305
▁윗	-10.4307
▁깎아	-10.4311
▁독서	-10.4312
▁어색한	-10.4314
▁대답	-10.4314
▁센	-10.4315
▁주택	-10.4315
▁설명	-10.4315
▁읽씹	-10.4316
▁없는걸	-10.4318
주물	-10.4321
▁익숙해지지	-10.4324
▁속상해	-10.4329
▁결심이	-10.433
▁바늘	-10.433
▁새해	-10.4335
▁보자고	-10.4335
▁보냈어	-10.4336
▁흘러가	-10.4337
름이	-10.4346
▁결혼해야	-10.435
▁끝났네	-10.4352
정리를	-10.4352
▁동생한테	-10.4353
▁의미일까	-10.4353
▁연애하는데	-10.4356
▁듣기	-10.4359
▁놀러가세요	-10.436
▁갑작스러	-10.4361
▁싸울	-10.4364
▁깊었	-10.4365
▁덕	-10.4366
식하는	-10.4368
▁당연하	-10.4372
▁알아내	-10.4374
▁아픔이	-10.4375
하며	-10.4378
▁입장	-10.4378
▁순간이었	-10.4381
▁잤	-10.4381
▁세달	-10.4383
▁의지해	-10.4383
▁남자입니다	-10.439
▁알겠어	-10.439
▁이뻐	-10.439
▁싸우고	-10.4395
▁허무하네	-10.4396
▁뭐하	-10.44
각	-10.4401
▁반년	-10.4403
▁일정	-10.4404
▁배정	-10.4405
어보고	-10.4405
▁필요한가봐	-10.4411
기적	-10.4411
▁하는지	-10.4411
▁있었는데	-10.4411
▁할줄	-10.4412
▁연락할까	-10.4413
같네	-10.4416
▁나갈	-10.4419
▁없대	-10.442
▁견뎌내	-10.4428
▁활	-10.4431
▁만나러	-10.4431
▁키울	-10.4433
▁똑같	-10.4436
했네요	-10.4437
▁방심	-10.4438
▁애기	-10.4445
▁한계	-10.4448
▁좋아졌어	-10.4449
▁풀리	-10.4455
▁망가	-10.4469
▁마시지	-10.447
▁뻔했	-10.4477
▁소모	-10.4477
▁미팅	-10.4478
▁닮아	-10.4483
▁달라질	-10.4485
▁걷다	-10.4486
▁포	-10.4487
▁투	-10.4493
▁탈퇴	-10.4495
▁이어가	-10.4496
▁걸리	-10.4497
▁싶다는	-10.4501
▁많았나	-10.4504
▁결정하는	-10.4508
하셔야죠	-10.451
▁해야겠지	-10.4513
▁육아	-10.4519
▁단점	-10.4522
▁이해하	-10.4522
▁잊지못	-10.4523
이럴까	-10.4535
▁헤어지기	-10.4539
▁먹으	-10.4542
▁머	-10.4546
▁자다	-10.4547
▁벗	-10.4556
▁필요하지	-10.4558
▁아프게	-10.4558
▁있대	-10.456
▁퍼	-10.4563
▁피곤하	-10.4565
▁갖자	-10.4566
▁잊어가는	-10.4567
▁시간이겠	-10.4576
▁기간	-10.4577
▁힘드	-10.4585
▁말보다	-10.4585
▁낭만적	-10.4585
▁향기	-10.4586
있을까	-10.459
▁확인하는	-10.4608
▁확실해	-10.4611
갈수록	-10.4613
였나	-10.4615
▁사랑하나	-10.4618
▁모를	-10.4619
쉬	-10.4623
▁켜	-10.4631
▁밀어	-10.4634
▁겨울에	-10.4641
▁사전	-10.4644
▁고백할까	-10.4645
▁잘해야	-10.4648
▁짝	-10.4649
▁요구	-10.465
▁쌓였	-10.4654
▁구분	-10.4664
고치기	-10.4665
▁해야할	-10.4665
줄게	-10.4671
▁지내는	-10.4671
▁먹어야	-10.4672
▁났나봐	-10.4674
▁초대	-10.4678
▁느껴	-10.4688
▁했을	-10.4691
년만	-10.4692
▁대리	-10.4705
▁이용해	-10.4707
했을까	-10.4708
▁예민해	-10.4713
이너	-10.4717
▁예상	-10.4725
들지	-10.4728
간다	-10.4738
▁굴	-10.4741
▁그리운	-10.4743
▁뜨는	-10.4746
▁판	-10.4752
▁크리스마스에	-10.4755
이래	-10.4762
▁차단하는	-10.4777
▁운	-10.4779
▁분들	-10.4782
▁익숙해지	-10.4792
▁화해	-10.4794
갔어	-10.4796
▁떨어	-10.4797
▁색	-10.48
▁처리	-10.4803
▁비오	-10.4804
졌는데	-10.4811
▁놓으	-10.4823
▁도	-10.4826
▁무너졌	-10.4835
▁여지	-10.4841
▁하러	-10.4842
인데요	-10.4843
온다	-10.4847
코인	-10.485
나의	-10.4864
▁헛헛하	-10.4878
▁못자	-10.488
너	-10.4887
▁인연인	-10.4893
였나봐	-10.4899
▁사랑이었	-10.491
▁때문일	-10.4913
▁지쳤	-10.4914
스터	-10.4916
▁물어보고	-10.4929
▁했다	-10.4931
▁짝사랑만	-10.494
▁바뀌어	-10.4954
▁작	-10.4955
시다니	-10.4961
볼때	-10.4966
▁연락할	-10.4973
▁거겠지	-10.4981
▁지적	-10.4981
▁봤네	-10.4994
▁나지	-10.5017
▁출근하	-10.5027
신가요	-10.5029
▁남길	-10.505
▁순수하	-10.5054
▁오지	-10.5055
▁정의	-10.5062
내고	-10.5068
말걸	-10.507
되니까	-10.5085
▁사람이었나	-10.5092
▁정신없	-10.5094
▁별로인	-10.5101
▁합	-10.5109
▁화나	-10.511
▁모른척하	-10.5138
▁있었나요	-10.514
감이	-10.5151
▁운명인가	-10.5156
▁내기	-10.5156
쳤어	-10.5158
이지	-10.5177
▁카페에	-10.518
나는	-10.518
▁나눠보	-10.5194
▁거였	-10.5209
▁신청	-10.5225
▁귀찮은	-10.5234
▁안정적	-10.5247
▁많아지	-10.5254
▁불면증	-10.5256
▁생각하나	-10.528
드리	-10.5299
▁급	-10.5307
▁만족	-10.5316
▁바지	-10.532
▁요리	-10.5323
▁생각하게	-10.5331
▁안부	-10.5331
▁기술이	-10.5336
▁자르	-10.5337
음이	-10.5343
▁고독	-10.5353
▁트	-10.5356
▁행	-10.536
▁애정	-10.5363
▁들어올	-10.5372
▁떠보	-10.5384
▁걸까요	-10.5387
▁우리집	-10.539
▁무엇인	-10.5393
보여	-10.5398
▁알지	-10.5412
▁노력해보	-10.542
▁원하	-10.5421
▁여행이	-10.5437
▁괜찮지	-10.5465
▁찾아오네	-10.547
기까지였나	-10.5475
한게	-10.5481
▁수건	-10.5483
린다	-10.5523
▁나아졌	-10.5529
▁말로	-10.5529
▁포기하	-10.5552
▁다가왔	-10.5581
▁나겠	-10.5587
받고	-10.559
친구	-10.5603
▁의	-10.5604
▁싫은가봐	-10.5608
▁하려고	-10.5613
▁민	-10.5614
▁개강	-10.563
▁차가	-10.5631
직	-10.5632
▁실수한	-10.5644
▁가는데	-10.5656
▁접어두	-10.5668
▁적이	-10.5674
▁지냈	-10.5675
▁집착하	-10.568
▁척하는	-10.5691
▁생일이	-10.5693
▁그사람이	-10.5694
▁남아	-10.5697
▁치맥이	-10.5698
겠대	-10.57
▁조급하	-10.5703
오늘	-10.5722
▁복잡해	-10.5724
해주지	-10.573
온	-10.5731
▁때로	-10.5743
▁맞춰주	-10.5748
▁결정이	-10.5759
쳐버리	-10.5764
▁나야	-10.5775
▁이기적이	-10.5786
▁사랑해요	-10.5792
는걸	-10.5806
▁개강이	-10.5832
▁편안하	-10.584
▁안가	-10.5862
안한다	-10.5862
▁일인	-10.5865
봤어	-10.5865
드려	-10.5869
▁후회없	-10.5877
▁남자의	-10.5893
▁위험하	-10.5898
취	-10.5945
▁못난	-10.5949
연애	-10.5962
▁하지마	-10.5963
▁버리는	-10.5965
무	-10.5971
망이	-10.5981
▁해주면	-10.5987
▁도와드릴	-10.5996
▁죽었	-10.6014
▁어디가	-10.6027
▁원해	-10.604
▁일기	-10.6042
▁살아가	-10.6042
막히는	-10.6047
심이	-10.6053
▁닫	-10.6054
▁않았을	-10.6059
▁아니었을	-10.6072
▁오락가락	-10.6088
▁아이돌	-10.6091
▁하게	-10.611
▁아니네	-10.612
▁감성	-10.6133
▁부족	-10.6135
했다	-10.6144
▁되는거	-10.6144
▁기억에	-10.6176
▁주기	-10.6186
▁이별하는	-10.62
됩니다	-10.6201
▁알아봐	-10.621
▁이름	-10.6212
일만	-10.6213
▁털어	-10.6216
▁사나	-10.6223
▁착각	-10.6236
▁불안하	-10.626
▁혼내	-10.6261
받	-10.6262
야할	-10.6262
시려	-10.6275
▁봐주	-10.6275
줘야	-10.6283
라는게	-10.6291
해줘	-10.6304
▁내면	-10.6312
이란게	-10.6315
▁영화보	-10.6356
▁친해	-10.6367
성적이	-10.6369
기세요	-10.6369
다는데	-10.6372
▁힘들까	-10.6375
올려	-10.6376
겼어	-10.638
선물	-10.6385
▁연인이	-10.6391
▁지났어	-10.6401
톡	-10.6403
참	-10.6403
났어	-10.6431
▁상처주	-10.6432
▁무너	-10.6435
형이	-10.6447
▁재미있는	-10.6449
▁되어가	-10.645
▁처음이	-10.6451
▁먹자	-10.6453
▁아니고	-10.6467
확	-10.6482
▁실수하	-10.6488
▁올리	-10.6488
▁상황에	-10.649
싶다	-10.6495
▁놀랐겠	-10.6508
머리	-10.6511
▁깔끔하	-10.6527
▁많은가	-10.6539
▁안좋	-10.6546
망	-10.6551
▁이길	-10.6563
▁연속이	-10.6566
버	-10.657
놓지	-10.6576
▁잡는	-10.6594
▁살다	-10.6598
왔네	-10.6608
▁느껴보	-10.6616
이니까	-10.6624
러워	-10.6628
▁물어보면	-10.6631
폭	-10.6642
맘	-10.6643
시면	-10.6646
와야	-10.6654
▁챙	-10.6656
▁헛헛	-10.6657
실에	-10.6658
▁열어	-10.6679
기네	-10.6682
▁당당해	-10.6686
속에	-10.6694
▁경험	-10.6698
잔	-10.6698
▁뭐지	-10.6713
▁나눠보는	-10.6717
▁관심있	-10.6718
▁연습하	-10.6731
▁표시	-10.6731
절한	-10.6733
때문에	-10.6735
▁좋네	-10.6746
색	-10.6747
▁놀까	-10.6756
3	-10.6757
▁빠	-10.6766
▁손해	-10.6775
▁말자	-10.6783
▁무덤덤해	-10.6785
시켜	-10.6787
▁타나	-10.6787
생	-10.679
스타일	-10.6794
생각이	-10.6796
▁사람하고	-10.6814
모습	-10.6815
미	-10.6834
왕	-10.6843
▁이기	-10.6848
넘	-10.6862
있나	-10.6862
▁남사친	-10.6863
근	-10.687
해야할지	-10.687
되가네	-10.6872
되길	-10.6873
순	-10.6873
찬	-10.688
공원	-10.6881
밤	-10.6882
속	-10.6884
거지	-10.6884
티	-10.6893
꿀	-10.6896
영	-10.6896
▁웃어	-10.6899
▁학생	-10.6899
하는지	-10.6905
▁극복하	-10.6909
▁응원	-10.691
받으면서	-10.6917
만남	-10.6923
나가는	-10.6923
▁관계에	-10.6929
찌	-10.6939
롱	-10.694
햇	-10.694
따로	-10.6942
▁잘못한	-10.6942
문득	-10.6946
건강에	-10.6946
▁이것	-10.6946
뒤	-10.6948
맞나	-10.6949
왔다	-10.6955
빵	-10.6959
견	-10.6962
▁병	-10.6965
선배	-10.6966
▁이겨	-10.6966
당했어	-10.6968
호	-10.6969
치료	-10.6972
뜨	-10.6977
평가	-10.6977
빈	-10.698
커플	-10.6988
노	-10.699
▁사먹	-10.6993
생긴	-10.6998
포	-10.7003
슬	-10.7005
클	-10.7006
빨	-10.7007
▁받아들여	-10.7012
▁서운하	-10.702
처	-10.7031
특	-10.7035
▁너무너무	-10.704
렀어	-10.7058
▁공부해야	-10.7061
계절	-10.7074
얘	-10.7091
수건	-10.7117
▁어장	-10.7133
▁입으	-10.7134
싶었	-10.7139
▁정리했	-10.7145
▁보내지	-10.7146
▁줄일	-10.7158
▁때인	-10.7175
▁가득	-10.7197
좋아	-10.7208
▁취직하	-10.7212
▁머릿속에	-10.7244
성이	-10.725
▁결혼해	-10.7282
▁속상	-10.7295
인줄	-10.7296
▁이야기하고	-10.7305
였던	-10.7309
▁태어	-10.7313
▁뜨	-10.7339
루	-10.7344
▁100	-10.7353
▁깎	-10.7378
▁뛰	-10.7384
▁움직	-10.7402
았습니다	-10.7402
감기	-10.742
롭	-10.7442
▁감당	-10.7449
▁상메	-10.745
▁무색하	-10.7452
▁골	-10.7454
▁잘지내	-10.7466
여자들이	-10.7467
시키는	-10.7476
해야할까	-10.7478
룩	-10.7479
▁솔로	-10.7483
았나봐	-10.7485
▁중국	-10.7485
▁의지하	-10.7494
곡	-10.7495
▁사겨	-10.7498
▁필요한가	-10.7505
▁붙잡아	-10.751
업에	-10.751
겁	-10.7511
났네	-10.7512
▁들을	-10.7512
▁사주	-10.7514
▁한숨	-10.7517
▁두근거	-10.7517
납	-10.7519
해주	-10.7519
텐	-10.7523
받으	-10.7523
펴	-10.7523
▁없고	-10.7524
지겠네	-10.7525
즘	-10.7526
촉	-10.7527
▁바랄	-10.7529
▁삐	-10.7529
춰	-10.7529
▁맨	-10.753
▁보고싶	-10.753
세포	-10.7531
▁멈	-10.7531
▁휘	-10.7531
범	-10.7532
▁회복	-10.7532
둥	-10.7532
▁씁	-10.7532
뱃	-10.7532
▁브	-10.7532
앗	-10.7532
▁헹	-10.7532
맷	-10.7532
쭤	-10.7532
▁밑바닥	-10.7532
▁오지랖	-10.7532
▁쿨	-10.7532
▁홈	-10.7532
궈	-10.7532
-	-10.7532
a	-10.7532
s	-10.7532
▁간질간질	-10.7532
▁객관적	-10.7532
▁거둬	-10.7532
▁교양수업	-10.7532
▁글쎄요	-10.7532
▁깍	-10.7532
▁꽉	-10.7532
▁끓여	-10.7532
▁뇌	-10.7532
▁눕	-10.7532
▁느낀다면	-10.7532
▁떴	-10.7532
▁로맨스	-10.7532
▁머리카락	-10.7532
▁멘	-10.7532
▁몫	-10.7532
▁묘	-10.7532
▁무한리필	-10.7532
▁미안하대	-10.7532
▁버릇	-10.7532
▁식단조절	-10.7532
▁심쿵	-10.7532
▁아날로그	-10.7532
▁앱	-10.7532
▁엄마아빠	-10.7532
▁열흘	-10.7532
▁올랐어	-10.7532
▁원동력이	-10.7532
▁좌절	-10.7532
▁쪼	-10.7532
▁찔	-10.7532
▁찜질방	-10.7532
▁캬	-10.7532
▁토닥토닥	-10.7532
▁팍팍	-10.7532
▁피시방	-10.7532
▁하객	-10.7532
▁헥헥	-10.7532
▁현관문	-10.7532
▁휴유증	-10.7532
겐	-10.7532
놨	-10.7532
눅	-10.7532
니깐	-10.7532
댈	-10.7532
됬네	-10.7532
딩	-10.7532
땜	-10.7532
렵니다	-10.7532
륵	-10.7532
벤	-10.7532
샜	-10.7532
송	-10.7532
앨	-10.7532
이브	-10.7532
젤	-10.7532
짚	-10.7532
쿠	-10.7532
팁	-10.7532
훔	-10.7532
흠	-10.7532
▁꼼꼼	-10.7532
▁묻어두	-10.7532
▁비혼주의	-10.7532
▁씹어	-10.7532
▁흐지부지	-10.7532
껄	-10.7532
옵	-10.7532
울컥	-10.7532
총회	-10.7532
▁뻐근	-10.7532
▁상종하지	-10.7532
▁어딘가	-10.7532
▁잘생겨	-10.7532
▁주인공	-10.7532
▁창피해	-10.7532
▁현타	-10.7532
드레스	-10.7532
▁비정상이	-10.7532
▁현명	-10.7532
▁찌질한	-10.7532
▁소름돋	-10.7532
▁뜨끈	-10.7532
▁배터리	-10.7532
▁씨씨	-10.7532
▁주워담	-10.7532
▁골프	-10.7532
▁배불러	-10.7532
▁예쁠	-10.7532
▁씁쓸	-10.7532
▁격식	-10.7532
▁땡긴다	-10.7532
▁늙어가	-10.7532
▁컴터	-10.7532
▁멈춰	-10.7532
▁욜로	-10.7532
▁으으	-10.7532
▁스릴있	-10.7532
▁뜨겁	-10.7532
▁공황	-10.7532
▁뛰어넘	-10.7532
▁투잡	-10.7532
▁해외여행	-10.7532
▁충실하	-10.7532
▁난감하	-10.7532
▁바람둥이	-10.7533
▁알뜰폰	-10.7533
▁평범	-10.7533
▁찬물	-10.7533
▁깜빡거려	-10.7533
▁증명	-10.7533
▁자유여행이	-10.7533
▁인지시켜	-10.7533
▁노잼	-10.7533
▁갑작스럽	-10.7533
▁스킨	-10.7533
▁편의점	-10.7533
▁서핑	-10.7533
▁찬성	-10.7533
▁초기화	-10.7533
▁흐려지	-10.7533
▁감정기복	-10.7533
▁사로잡	-10.7533
▁미끄러	-10.7533
▁승진	-10.7533
▁힘드셨	-10.7533
▁와닿	-10.7533
▁어렸을때	-10.7533
듭니다	-10.7533
▁혼란스럽	-10.7533
▁공시생	-10.7533
▁종지부	-10.7533
▁재설계	-10.7533
▁친절한	-10.7533
▁바꿨어	-10.7533
▁대기업	-10.7533
▁태어났을까	-10.7533
▁정열적	-10.7533
▁스노	-10.7533
▁불순	-10.7534
베리	-10.7534
▁길거리에	-10.7534
▁떨어짐	-10.7534
▁으아	-10.7534
▁짜증남	-10.7534
▁교양	-10.7534
▁신경써	-10.7534
▁계획적이	-10.7534
▁출발	-10.7534
▁절친	-10.7534
▁음료	-10.7534
▁태그	-10.7534
▁발견	-10.7534
▁힘이드네	-10.7534
▁허전함	-10.7534
▁나빴네	-10.7534
▁예랑이	-10.7534
▁허전할	-10.7534
▁오랜연애	-10.7535
▁대청소	-10.7535
▁친척	-10.7535
▁보름달	-10.7535
▁가벼워질	-10.7535
▁드라이	-10.7535
▁이제서야	-10.7535
▁즐겨	-10.7535
▁뒤숭숭하네	-10.7535
▁리드	-10.7535
▁직후	-10.7535
▁택시비	-10.7536
▁갑작스러웠	-10.7536
▁참석하는	-10.7536
▁환심	-10.7536
▁다녀왔어	-10.7536
▁기침	-10.7536
혔어	-10.7536
▁누워	-10.7536
▁농구	-10.7536
▁유명	-10.7536
▁취직이나	-10.7536
▁들이대	-10.7536
▁다닐까	-10.7536
▁나이테	-10.7536
더군	-10.7536
▁여러명	-10.7537
▁직전	-10.7537
▁어울릴까	-10.7537
▁접어야	-10.7537
▁옥상	-10.7537
▁잊혀진	-10.7537
▁내딛	-10.7537
▁멀어진	-10.7537
▁치마	-10.7537
▁반영	-10.7538
▁외부	-10.7538
▁식혀	-10.7538
▁설마	-10.7538
▁스쳐	-10.7538
▁유료	-10.7538
▁경제	-10.7538
▁이끌어	-10.7538
▁녹여	-10.7538
▁시도해	-10.7538
▁숨막히	-10.7539
▁비정규직	-10.7539
잔하네	-10.7539
▁신기하	-10.7539
▁감출	-10.7539
▁여기까지였	-10.7539
▁귀여운	-10.754
▁바꿔볼까	-10.754
▁지웠어	-10.754
▁바닥	-10.754
▁대체	-10.754
▁배워볼까	-10.754
▁변해가는	-10.7541
▁버렸다	-10.7541
설계	-10.7541
▁정리되길	-10.7541
▁보인다	-10.7541
▁배워가는	-10.7541
▁공통점	-10.7542
▁차였는데	-10.7542
▁먹먹	-10.7542
▁정리했습니다	-10.7543
▁지루	-10.7543
▁탈출구	-10.7543
▁나쁜놈	-10.7543
▁맘같	-10.7544
▁생일선물	-10.7544
▁망함	-10.7544
▁대학원	-10.7545
▁까먹었어	-10.7545
▁무거	-10.7545
▁역할	-10.7545
납니다	-10.7545
겁니다	-10.7546
▁감동	-10.7546
▁요청	-10.7546
스트	-10.7546
▁사표	-10.7546
▁배려해야	-10.7546
▁찍었네	-10.7547
▁시간이었	-10.7547
▁이틀	-10.7547
▁바람피	-10.7548
▁세월	-10.7548
▁양치	-10.7549
▁끊어야	-10.7549
▁강제	-10.755
▁나빠	-10.7551
▁단단해지	-10.7551
▁사탕	-10.7551
▁환장	-10.7551
▁한달반	-10.7552
▁지각	-10.7552
▁연락했습니다	-10.7552
▁익숙해져	-10.7552
▁군인	-10.7553
탈까	-10.7553
▁보고파	-10.7553
▁있었는지	-10.7554
▁부족해	-10.7554
▁걸어보	-10.7554
▁어떡하죠	-10.7555
▁일주일이네	-10.7555
▁서울	-10.7556
▁않지	-10.7556
▁자장면이	-10.7556
뜨려	-10.7556
▁다갔어	-10.7556
▁실천	-10.7557
▁들텐데	-10.7557
▁매달려	-10.7557
▁끊겼어	-10.7557
▁속상할거	-10.7558
▁귀여	-10.7561
▁외국어	-10.7562
▁습관처럼	-10.7562
▁재회했는데	-10.7562
▁떠나간	-10.7563
▁끝났으면	-10.7563
▁괜찮겠지	-10.7563
▁털	-10.7564
▁전학가	-10.7565
▁신경쓰인	-10.7565
▁되려면	-10.7565
▁어떠세요	-10.7568
▁티나나	-10.7568
▁고마	-10.7569
▁누구냐	-10.7569
▁실수했나	-10.7572
▁약간	-10.7572
▁안오지	-10.7572
▁꿔	-10.7573
▁일시적	-10.7573
▁특히	-10.7574
▁가능합니다	-10.7574
▁잊자	-10.7574
▁권리	-10.7575
▁약점	-10.7575
▁밀려오	-10.7575
▁작아지	-10.7576
▁낮잠	-10.7576
▁다정한	-10.7576
▁나온대	-10.7577
▁탁	-10.7578
▁봤나	-10.7578
▁추스리	-10.7579
스테	-10.758
▁접는	-10.7581
▁예쁜데	-10.7581
▁모여	-10.7582
▁잘못입니다	-10.7582
▁한달만에	-10.7582
▁냉면	-10.7583
냐구	-10.7583
▁됐습니다	-10.7584
▁난방비	-10.7584
▁없어졌으면	-10.7584
게되네	-10.7585
▁상대적	-10.7588
▁생생한	-10.7591
자마	-10.7594
▁성숙해지	-10.7594
▁정신과	-10.7595
▁필수	-10.7595
▁고집	-10.7596
▁커플여행	-10.7596
▁사무	-10.7599
▁발라	-10.7601
▁싫어져	-10.7601
인건가	-10.7603
▁없는걸까	-10.7604
▁동거하다	-10.7605
▁월급날	-10.7606
▁공기	-10.761
▁다양	-10.761
▁보임	-10.761
▁다짐	-10.761
▁죽을거	-10.761
▁얘기하지	-10.7612
▁즐거워	-10.7612
▁헷갈리네	-10.7614
▁판단력	-10.7616
▁편하겠죠	-10.7616
▁잘자요	-10.7617
▁역시나	-10.7617
▁미안	-10.7617
▁뿌려	-10.7618
▁감성적이	-10.762
▁헤	-10.762
▁알려면	-10.7621
▁아련하	-10.7622
▁끈을	-10.7623
▁점심시간에	-10.7623
오르네	-10.7626
▁질문	-10.7626
▁당연한	-10.7628
▁사줘	-10.763
▁따지	-10.7631
이었나봐	-10.7633
▁누락됐	-10.7634
▁하트	-10.7636
▁메리	-10.7636
▁있는걸까	-10.7636
▁비와	-10.7637
▁수학여행가	-10.7637
▁재밌어	-10.7637
▁이러는	-10.764
▁걸었어	-10.7641
▁연애중	-10.7642
▁영어	-10.7643
▁일상으로	-10.7644
▁아니었어	-10.7645
▁깨달았	-10.765
▁열까지	-10.7651
▁많은걸	-10.7651
▁가능한가	-10.7651
▁하다니	-10.7652
▁무거워	-10.7653
▁혼나	-10.7654
주일	-10.7654
▁어색해졌어	-10.7655
▁회의	-10.7655
▁효도	-10.7655
버리	-10.7655
▁쓰일	-10.7656
▁무뎌지는	-10.7657
▁코스	-10.7658
▁하셔	-10.766
▁보고싶네	-10.7661
▁세우	-10.7661
들었겠	-10.7663
▁이별이란	-10.7664
▁낭만이	-10.7665
▁집착하지	-10.7665
▁배우자	-10.7666
▁농	-10.7672
▁사랑이야기	-10.7673
▁감수	-10.7673
▁태	-10.7674
하기로	-10.7675
▁좋겠습니다	-10.7675
▁첫눈	-10.7675
▁탈출	-10.7675
▁뭐임	-10.7676
▁차인	-10.7678
▁아니겠지	-10.7681
▁잃을	-10.7682
▁뛰어	-10.7682
▁팩	-10.7683
▁볶	-10.7683
▁쭉	-10.7683
▁깨진	-10.7684
▁존	-10.7685
▁없다는	-10.7686
▁지냈나	-10.7686
▁깜빡	-10.7688
▁연락했는데	-10.7689
▁대수	-10.7689
▁가능한	-10.769
하는건	-10.7694
▁불쑥	-10.7695
▁응	-10.7696
▁남아있	-10.7697
▁김치	-10.7697
▁생각일까	-10.7698
▁웃음	-10.7699
▁만들기	-10.77
▁주저리	-10.7701
▁좋대	-10.7702
▁해봤는데	-10.7702
▁미칠	-10.7703
▁간대	-10.7706
▁표현하지	-10.771
▁다녀와	-10.7712
▁시작하기	-10.7716
▁악	-10.7718
▁좋아지고	-10.772
▁느껴질	-10.7721
▁연애인	-10.7721
▁죽겠다	-10.7723
▁터질	-10.7723
올려봐	-10.7724
▁결혼준비	-10.7727
마시며	-10.773
▁넘었는데	-10.7731
감한	-10.7733
▁믿는	-10.7733
▁비용	-10.7735
▁채워보세요	-10.7737
▁복잡한가	-10.7738
주인	-10.7739
지는것	-10.774
▁현실이	-10.7742
드세요	-10.7746
▁입을까	-10.7748
▁둔한	-10.7751
▁예쁘다	-10.7752
로그	-10.7755
▁아려	-10.7755
▁춥고	-10.7756
▁공부방법	-10.7756
▁할까요	-10.776
▁헤어질	-10.7763
▁먹어보세요	-10.7764
▁남았어	-10.7765
▁추	-10.7767
▁받아들여지	-10.7768
런지	-10.777
▁사귀는데	-10.777
▁오니까	-10.7778
▁울고	-10.7778
▁귀찮게	-10.7782
▁누나	-10.7784
▁분에게	-10.7785
▁나쁘	-10.7786
▁로	-10.7786
▁없습니다	-10.7789
▁현금이	-10.7795
▁사이로	-10.7796
▁남자와	-10.7796
한걸까	-10.7797
▁안나나	-10.78
▁저주	-10.78
▁것일까	-10.7802
▁지워지	-10.7802
▁예고	-10.7805
▁치우	-10.781
▁나오네	-10.7818
▁답답해서	-10.7828
▁침	-10.7836
기사	-10.7838
▁거부	-10.784
▁중독	-10.7843
▁포기하지	-10.7845
▁생각난다	-10.7852
화가나네	-10.7857
▁불금이	-10.7857
오게	-10.786
▁솔	-10.7861
▁안갈	-10.7861
▁소식에	-10.7866
▁욕하는	-10.7866
▁썸타다	-10.7869
▁서운한	-10.7884
▁처음이라	-10.7884
▁무서	-10.7891
▁덤덤해	-10.7894
해줬어	-10.7896
▁만들죠	-10.7904
▁지식	-10.7905
▁틈	-10.7908
▁해줄까	-10.7912
▁쪽	-10.7913
▁전까지	-10.7914
▁버림	-10.7914
▁부담스러워할까	-10.792
▁당한	-10.7922
▁웃는	-10.7925
▁떠났	-10.7926
▁받으셨	-10.7928
길래	-10.7928
▁나이들	-10.7929
▁추가	-10.7932
▁치열해	-10.7934
▁사람이었어	-10.7936
▁그러지	-10.7937
▁가입	-10.7939
뽑기	-10.7945
▁하나봐	-10.7952
▁썸인가요	-10.7952
었나	-10.7953
▁냄새나	-10.7959
▁이뤄지	-10.7959
일이네	-10.7962
▁표현하	-10.7963
▁딸까	-10.7963
순수한	-10.7964
상일	-10.7967
▁끊으	-10.7968
▁달려있	-10.7975
▁가시	-10.7979
▁먹나	-10.7982
▁채	-10.7986
▁크겠	-10.7988
▁특	-10.7997
▁맛있다	-10.8004
식물	-10.8009
▁보았	-10.8009
▁뜻밖	-10.801
▁소심	-10.8012
▁0	-10.8013
할까요	-10.8021
▁무덤덤해지	-10.8022
▁비우	-10.8025
▁백업해	-10.8027
▁웃기	-10.8028
▁아파서	-10.8032
▁하아	-10.8032
▁음	-10.8036
▁할인	-10.8038
▁청춘이	-10.8039
▁부려	-10.804
▁짝사랑인	-10.804
져서	-10.8042
▁지내요	-10.8042
▁받아들이	-10.8044
버렸네	-10.8046
▁생겼을	-10.8047
▁너무나	-10.805
▁알게되면	-10.805
▁시간인가	-10.8056
▁놓는	-10.8058
▁가려고	-10.8062
▁그럴까요	-10.8064
▁생각할까	-10.8067
▁멀었	-10.8069
▁넘어	-10.807
▁작아	-10.8073
▁찾	-10.8073
▁어장인	-10.8074
▁긍정적이	-10.8075
▁힘들지만	-10.8076
▁좋은점	-10.8077
▁나가지	-10.8084
▁페	-10.8084
▁영상	-10.8094
고파	-10.8095
▁짝사랑에서	-10.8096
▁이상한가	-10.8103
▁놓쳤	-10.8112
▁좋으니	-10.8113
▁빈	-10.8113
▁표현에	-10.8115
▁것만	-10.8117
쳐보	-10.8119
▁될지	-10.813
▁기다렸	-10.8132
▁마주하	-10.8133
▁데서	-10.8138
▁빵	-10.814
▁짰	-10.8142
▁너무하네	-10.8147
▁일과	-10.8148
▁나타나	-10.8155
▁떨면	-10.8165
▁자라	-10.8167
▁헤어져야하는	-10.8172
▁철벽이	-10.8173
▁비만	-10.8177
▁마음가는	-10.8177
▁머리로	-10.818
개시	-10.8185
▁친구인데	-10.8187
▁휴학	-10.8193
까운	-10.8198
▁갠톡	-10.82
▁다른데	-10.8201
▁오나봐	-10.8205
▁할말	-10.821
▁사랑합니다	-10.8221
▁정성	-10.8223
▁얘기해	-10.8227
▁식습관	-10.8232
▁에이	-10.8248
▁애인이	-10.8252
오지마	-10.826
▁못잊는	-10.8261
▁사랑했어	-10.8291
▁웃어주	-10.8298
안됩니다	-10.8299
싶은데	-10.8304
▁취향이	-10.8307
▁몰아	-10.8308
▁넘은	-10.8309
▁옷이	-10.8317
▁허락하	-10.8322
▁막막하	-10.8333
▁부담되	-10.8336
▁보내세요	-10.8342
되어있는	-10.8346
▁고백한	-10.8353
▁썼다	-10.836
▁챙겨줘	-10.8363
▁만나기	-10.8367
▁뒀	-10.8373
▁'	-10.8373
돌	-10.8394
▁고백해야	-10.8396
올까	-10.8406
▁진도	-10.8407
▁숨기	-10.8415
았으면	-10.8415
▁해보려	-10.8418
▁밥이	-10.8421
▁찾으	-10.8422
어진다	-10.8435
▁거지같	-10.8441
잘	-10.8442
▁생각하기	-10.8442
▁가져가	-10.8442
▁너랑	-10.8442
▁되는건	-10.8448
▁상태인	-10.8453
▁남는	-10.8457
꺼야	-10.8459
▁질린	-10.8465
려면	-10.8476
되어	-10.848
▁싶었	-10.8508
▁집앞	-10.8521
끄러	-10.8521
▁불안한	-10.8532
준비	-10.8533
해준	-10.8546
▁건강하	-10.856
▁안될	-10.8561
남한테	-10.8568
이예요	-10.8574
▁멀	-10.8574
▁중입니다	-10.8587
▁넣어	-10.861
할게	-10.8618
▁오해하	-10.8618
▁어떡	-10.8621
나보네	-10.8627
▁자신다	-10.863
▁동물이	-10.8641
▁괜찮다가	-10.8651
했던거	-10.8651
끝이네	-10.8657
▁흐르면	-10.8657
▁급해	-10.8675
▁낙이	-10.8678
▁거면	-10.8679
▁일인가봐	-10.8684
▁갔는	-10.8691
▁계절	-10.87
기에	-10.8712
▁정리해야	-10.8712
받았다	-10.8713
▁부여하	-10.8713
▁건강습관이	-10.8723
▁나오겠	-10.8728
▁늦는	-10.8732
▁알아주	-10.8754
라더니	-10.8755
가고	-10.8761
렸나봐	-10.8769
▁진지	-10.8785
▁달에	-10.8788
▁배신	-10.8789
▁잊으려	-10.879
때리는	-10.8792
▁지속해	-10.8793
▁찾아왔	-10.8793
이가	-10.8808
▁수준	-10.881
리세요	-10.881
▁수면	-10.8823
었나요	-10.8851
▁상황인	-10.8856
▁바람이	-10.8859
▁표현해보	-10.887
▁보기만	-10.887
▁사랑만	-10.8872
▁깨졌	-10.8876
네ᅮ	-10.8888
▁탈이	-10.8892
▁만나요	-10.8893
이었을	-10.8901
셔야	-10.8905
▁모임	-10.8908
▁높겠	-10.8909
▁많나	-10.8912
▁학생이	-10.8917
▁쓸쓸하	-10.8924
▁냉정	-10.8938
있	-10.8941
▁바람난	-10.8949
▁할지	-10.895
한대	-10.8952
▁가족들	-10.8956
되지	-10.8957
하고싶다	-10.8961
▁일반	-10.8968
▁티나	-10.897
어이가	-10.8979
▁소개해	-10.898
랐나봐	-10.8996
▁나아지	-10.8997
▁만들까	-10.9005
▁속이는	-10.9007
▁달라졌	-10.9015
▁끝인가봐	-10.9019
▁나니	-10.9032
▁본받	-10.9039
었지만	-10.9047
두세	-10.9068
▁알았다	-10.907
야해	-10.9097
▁이래	-10.9099
▁운명적	-10.9099
▁내년	-10.91
난다	-10.9104
▁보였	-10.9106
▁일주일이	-10.9107
▁헤어지고나	-10.9122
▁애인	-10.9136
▁키우는	-10.9141
해줘서	-10.9141
▁되어요	-10.9156
▁갑니다	-10.9159
▁만족해	-10.9166
▁시급	-10.9171
▁서점에	-10.9178
▁안하면	-10.9181
▁물건	-10.9182
▁답답하	-10.9192
▁거짓말이	-10.9204
▁오락가락하	-10.9217
▁그렇다	-10.9224
랑이	-10.9226
물이	-10.9229
이니	-10.9232
▁김	-10.9234
▁티내	-10.9253
▁다치	-10.9269
▁이별이에요	-10.9273
▁것일	-10.928
집에	-10.933
▁즐기면	-10.9334
▁모르겠다	-10.9339
▁본다	-10.9346
오겠죠	-10.9357
▁기적	-10.9366
▁고민이네	-10.9367
하시는	-10.9371
▁기대하	-10.9373
▁메	-10.9385
▁헬스장	-10.9387
▁하니	-10.9402
▁신청해	-10.9406
▁오늘로	-10.9423
▁느	-10.9423
못	-10.9437
린대	-10.9443
▁이별할	-10.9449
▁커지	-10.9454
▁울면	-10.9461
▁났어	-10.9464
참고	-10.9494
▁실망하	-10.9495
되가는데	-10.9497
해야겠다	-10.9509
▁사람이네	-10.9511
▁창업	-10.9532
▁우울하	-10.9535
민	-10.9554
여친이	-10.9555
이겠죠	-10.9569
▁안주	-10.9625
▁말라	-10.9629
라니	-10.9635
▁싶을	-10.964
달만에	-10.9642
▁들어오	-10.9657
었지	-10.9661
▁시간이었을	-10.9667
▁소문이	-10.9668
워야	-10.9698
▁꿨는	-10.9707
▁되려	-10.9717
타는	-10.9729
적이	-10.974
▁변해	-10.9749
요일	-10.975
인과	-10.9757
끔하	-10.977
▁치맥	-10.9777
버렸습니다	-10.9791
▁든다	-10.98
▁궁금하다	-10.9804
▁접어두는	-10.9818
▁사랑하세요	-10.982
▁보시	-10.9827
▁장기	-10.9832
▁벌어	-10.9834
해야할듯	-10.9853
▁극복해	-10.9858
▁이루어	-10.9861
다는건	-10.9869
▁걸리겠	-10.9876
▁심하네	-10.9877
▁따라가	-10.9887
▁좋아한다는	-10.9888
어지고	-10.9892
겟	-10.9893
▁힘든가	-10.9895
달라는	-10.99
▁물이	-10.9903
되었길	-10.9913
▁낫겠	-10.9916
▁복전하	-10.9935
▁헤어지자네	-10.9935
▁부리	-10.9937
▁꿨	-10.9957
▁듣는	-10.9996
▁있었어	-10.9997
▁물가	-11.0017
▁풀려	-11.0025
난다면	-11.0045
▁짧아	-11.0047
원합니다	-11.005
▁다했다	-11.0062
▁비참	-11.0078
▁받아줄	-11.0081
▁하루였	-11.0096
남자친구	-11.0105
▁아프겠	-11.0128
▁끝냈	-11.0134
▁개인적	-11.0162
▁취직할	-11.0163
▁나날	-11.0178
▁남나	-11.0181
야겠죠	-11.0181
▁힘내라	-11.0185
부를	-11.02
해야하나	-11.0206
▁두려운	-11.0207
이상	-11.0209
으면서	-11.0222
▁괜찮아졌다	-11.0225
▁도전하	-11.0228
▁생각했	-11.0234
▁마주	-11.0236
▁보자	-11.0265
적으	-11.0276
▁순수	-11.0289
갈까	-11.0292
해본	-11.0293
▁그리	-11.0304
▁잘라	-11.031
여자친구	-11.034
자는	-11.0344
▁질려하	-11.0349
다른	-11.0361
가지만	-11.0362
▁해보면	-11.0365
거겠지	-11.0367
▁건데	-11.0396
▁봐달라	-11.0397
▁이야기는	-11.0406
▁얻는	-11.0432
정말	-11.0434
▁계기	-11.0439
▁헤어짐에	-11.0445
▁어이	-11.0452
였는	-11.0465
▁싫지	-11.0466
▁바르	-11.0477
▁후련하네	-11.0505
▁로맨틱해	-11.0517
▁그런지	-11.0534
▁풀어보	-11.0537
▁배려하	-11.0541
▁않다	-11.0547
된다는	-11.0555
▁연애였	-11.0577
▁어떡하	-11.0582
▁도와주세	-11.0588
▁교회에	-11.0599
▁쓸쓸	-11.0602
▁준비해	-11.0625
▁괜찮은거	-11.0635
▁그랬을	-11.0646
다보니	-11.0666
보이네	-11.0669
▁알아줄	-11.0674
▁화냈	-11.068
일이라	-11.0682
▁식었	-11.0691
▁사실이	-11.0693
그런	-11.07
▁자리에	-11.073
봐야	-11.0753
한가봅니다	-11.0756
▁좋으	-11.0767
▁터지	-11.0774
▁아무는	-11.078
있나봐	-11.0796
▁기억나	-11.0805
지금	-11.0807
키	-11.0824
자리	-11.0825
은거	-11.0831
▁죽겠	-11.0841
▁서점	-11.0842
▁싫어하	-11.0852
▁해야하나	-11.0864
▁두근거리	-11.0865
지우	-11.0869
줘서	-11.0885
질까	-11.089
▁낙	-11.0899
보여요	-11.0911
▁불편하겠	-11.0918
▁미안해하	-11.0919
데이트	-11.0919
▁부여	-11.0934
표	-11.0936
▁좋았겠	-11.0938
출할	-11.0956
▁년	-11.0971
▁살아가는	-11.0982
입	-11.0983
▁기억하	-11.1015
▁많겠지	-11.1025
달렸나봐	-11.1031
소식을	-11.1034
▁났	-11.1046
라진	-11.1051
페	-11.1059
못했던	-11.1061
▁검색	-11.1078
▁부족하	-11.1078
▁비가오	-11.1082
▁반가	-11.1089
▁반복하	-11.1107
인다	-11.1111
▁준비하면	-11.1117
여의	-11.1119
전이	-11.1162
값이	-11.1164
▁다되가	-11.1169
휴	-11.1177
줬	-11.1182
▁해야겠	-11.1197
껴	-11.1198
▁익숙해지는	-11.12
많은	-11.1209
▁거래	-11.1217
▁그런거	-11.1223
▁잊지마	-11.1261
다리	-11.1266
눈	-11.1273
▁잊어버리는	-11.1293
하려나	-11.1296
▁기다	-11.1303
▁생각지	-11.1305
▁선물해주	-11.1308
▁귀엽다	-11.1321
▁한데	-11.1331
이었는데	-11.1332
▁집앞에	-11.1336
▁물리	-11.1348
이는	-11.1352
▁좋아졌	-11.1359
따	-11.1363
▁가보	-11.1376
편이	-11.1379
업	-11.1382
▁아쉽겠	-11.1383
굴	-11.139
내세요	-11.1402
▁그리운가	-11.1407
끝	-11.1412
▁참을	-11.1423
▁있었지	-11.1427
▁착하	-11.1432
주면	-11.144
들어서	-11.1443
▁약인	-11.1443
▁아니었	-11.1445
1	-11.1446
▁면	-11.145
▁말들	-11.1454
을때	-11.1461
열	-11.1462
▁끝내는	-11.1464
안돼	-11.1476
▁재회하고	-11.1496
▁언제가	-11.1502
▁대상	-11.1503
문제	-11.1505
▁평가	-11.1509
노래	-11.1513
▁애석	-11.1535
받아	-11.1537
없네	-11.1541
▁이어나가	-11.1542
했습니다	-11.1545
▁안정	-11.1563
▁여사친	-11.1572
움이	-11.1578
사정	-11.158
꿈	-11.1585
▁돌아보	-11.1587
▁보내보	-11.1593
침	-11.16
▁답인	-11.1618
아파	-11.1624
책	-11.1625
같지	-11.1625
▁오겠	-11.1631
았	-11.1661
체가	-11.1661
편	-11.1669
▁조심해야	-11.167
▁사랑받	-11.1687
▁붙잡는	-11.1692
▁올려달	-11.1699
테	-11.1702
▁뭐하면	-11.1712
늦	-11.1712
육	-11.1721
모두	-11.1724
▁죽는	-11.1729
향이	-11.1741
▁행복하지	-11.1744
딱	-11.1744
퍼	-11.1748
▁모르겠지	-11.1756
하더라고요	-11.1768
미리	-11.1775
맨날	-11.1778
6	-11.1778
증이	-11.1779
▁싶으	-11.178
▁많겠	-11.179
향	-11.1792
그리고	-11.1797
▁그만둬	-11.1798
문자	-11.1803
왔	-11.1809
4	-11.1818
그만	-11.1818
싸	-11.182
용해	-11.1822
차단	-11.1826
안녕	-11.1827
잼	-11.1835
▁여행가고	-11.1839
▁다니면	-11.1841
쇼핑	-11.1844
▁아쉽	-11.1848
학원	-11.1851
투	-11.1851
▁없는거	-11.1853
▁똑	-11.1853
▁부르	-11.1867
조절	-11.1873
보이	-11.1874
키스	-11.1875
눈물	-11.1876
벌	-11.1877
조건	-11.188
방향	-11.1881
후폭풍	-11.1888
교	-11.1891
▁전하면	-11.1892
빠질	-11.1892
생각나네	-11.1893
▁달려	-11.1896
노래방	-11.19
영상	-11.19
쪽	-11.1902
빙	-11.1902
S	-11.1902
자격증	-11.1903
▁치열	-11.191
▁괴	-11.1915
패	-11.1916
학생	-11.1919
급하	-11.192
케이스	-11.1921
▁봤	-11.1925
안됐네	-11.1929
사귄	-11.193
올라	-11.1932
반복	-11.1933
됨	-11.1934
미팅	-11.1935
싸움	-11.1936
기름	-11.1939
소모	-11.1939
▁돌보	-11.194
부려	-11.1944
자리에	-11.1946
틈	-11.1946
▁존재하	-11.1947
버림	-11.195
팔	-11.1951
철	-11.1957
빌려	-11.1958
▁씌	-11.1958
육아	-11.1958
쓸	-11.1959
뿌	-11.1963
나쁘	-11.1963
아플	-11.1964
짠	-11.1966
공	-11.197
단점	-11.1976
솔	-11.1977
어야죠	-11.198
커	-11.198
신청	-11.1982
이야기	-11.1989
▁예뻐해	-11.1994
있네	-11.1995
것인가	-11.2001
온대	-11.2006
▁사라	-11.2012
잡는	-11.2021
있다	-11.2026
보낼	-11.203
웠어	-11.2035
태	-11.2038
돌아	-11.2038
서도	-11.2039
꿨	-11.2047
먼	-11.2051
▁비워보	-11.2053
관리	-11.2061
들었어	-11.2073
를까	-11.2073
스타일이	-11.2078
▁배려해	-11.2078
심리	-11.208
프	-11.2082
하다고	-11.2082
어린	-11.2086
필	-11.2086
누	-11.209
먹은	-11.2097
났으면	-11.2102
밀어	-11.2107
▁척하	-11.211
▁현금	-11.2117
▁싫어하나	-11.2122
▁해주	-11.2125
시작이	-11.2132
집에서	-11.2135
인사	-11.2138
▁무뎌	-11.2142
▁전여친이	-11.2151
▁사랑이라는	-11.2154
▁옳	-11.2166
이런	-11.2173
▁향이	-11.218
이냐	-11.2192
환	-11.2204
자랑	-11.2208
하냐	-11.2223
▁매달	-11.2229
하겠어	-11.2233
사람이다	-11.2239
마셔	-11.2241
이라서	-11.2248
▁익숙	-11.225
망이지	-11.2254
폭풍	-11.226
불가	-11.2269
▁즐	-11.2275
▁모르니	-11.2277
풀리	-11.2282
그치	-11.2284
놓으	-11.2287
안할	-11.2301
거겠죠	-11.2304
▁약해	-11.2311
▁하고싶은	-11.2315
가입	-11.2331
젠	-11.2332
▁밉	-11.2333
▁자야	-11.2337
탈이	-11.2339
▁깨달	-11.2354
▁수학여행	-11.2363
것은	-11.2366
▁40	-11.2367
▁결혼하는	-11.2383
덕이	-11.2387
▁된다	-11.2389
갔네요	-11.239
▁말해야	-11.239
▁반가워	-11.2402
오르	-11.2403
▁이해못	-11.2409
타면	-11.2411
▁죽고싶	-11.2425
▁기억해주	-11.2426
▁써야	-11.2428
▁부질없	-11.2434
▁끈	-11.2441
힌	-11.2442
▁흔	-11.2444
▁밝	-11.2448
▁질거	-11.2451
▁심심하다	-11.2461
▁되돌	-11.2462
▁겁이	-11.2475
▁어떠	-11.2477
▁중독인가	-11.2479
우니	-11.2483
을거야	-11.2486
내는	-11.2488
▁불효	-11.2488
▁떨어졌	-11.2489
▁운명인	-11.2491
▁두셨	-11.2491
꾼	-11.2497
▁할게	-11.2505
▁벗어	-11.2506
▁흔들	-11.2507
듬	-11.2511
픈	-11.2512
련만	-11.2516
▁한순간	-11.2517
귄	-11.2517
닥	-11.2519
▁태어났	-11.2523
압	-11.2524
랜	-11.2524
▁옥	-11.2524
▁다닐	-11.2525
습기	-11.2526
현	-11.2527
▁탓	-11.2527
▁하셔야	-11.2528
둬야	-11.2529
첨	-11.253
험해	-11.253
로우니	-11.253
킨	-11.253
쑥	-11.253
▁쳐다	-11.2531
▁머릿	-11.2531
찢	-11.2531
뚝	-11.2531
▁광	-11.2531
낌	-11.2531
▁희생	-11.2531
▁핸드	-11.2531
▁렌	-11.2532
▁늙	-11.2532
▁깔	-11.2532
▁어울릴	-11.2532
빡	-11.2532
캄	-11.2532
댓	-11.2532
▁금사빠	-11.2532
▁넘어질뻔	-11.2532
▁덮	-11.2532
▁문콕	-11.2532
▁묻	-11.2532
▁섭섭	-11.2532
▁엇갈	-11.2532
▁폭식증	-11.2532
▁폰겜	-11.2532
%	-11.2532
;;	-11.2532
D	-11.2532
P	-11.2532
go	-11.2532
▁감정컨트롤	-11.2532
▁개당황	-11.2532
▁거리두기	-11.2532
▁건강검진	-11.2532
▁곱씹	-11.2532
▁공휴일에	-11.2532
▁관절염	-11.2532
▁괘씸하	-11.2532
▁교직이수	-11.2532
▁규	-11.2532
▁그린라이트	-11.2532
▁깐깐	-11.2532
▁깜깜	-11.2532
▁깬	-11.2532
▁깼	-11.2532
▁꼴	-11.2532
▁꽝이	-11.2532
▁논문	-11.2532
▁눈꺼풀	-11.2532
▁단톡방	-11.2532
▁대리효도	-11.2532
▁돌아섰	-11.2532
▁동문서답	-11.2532
▁두렵	-11.2532
▁둬	-11.2532
▁들이댔	-11.2532
▁들켰	-11.2532
▁뚫	-11.2532
▁띵	-11.2532
▁마침표	-11.2532
▁모태솔로	-11.2532
▁무뚝뚝해	-11.2532
▁무색해지네	-11.2532
▁밑	-11.2532
▁부딪혀	-11.2532
▁부딪혔	-11.2532
▁부딪히	-11.2532
▁부작용	-11.2532
▁블랙박스	-11.2532
▁빚	-11.2532
▁뻔뻔	-11.2532
▁뽀뽀	-11.2532
▁상견례	-11.2532
▁선풍기	-11.2532
▁설득	-11.2532
▁섬유유연제	-11.2532
▁소액	-11.2532
▁숏컷	-11.2532
▁숫자	-11.2532
▁시간낭비인	-11.2532
▁실험실	-11.2532
▁쌍	-11.2532
▁썰	-11.2532
▁아울렛	-11.2532
▁애매모호	-11.2532
▁애키우	-11.2532
▁얇	-11.2532
▁얽	-11.2532
▁옛	-11.2532
▁우습	-11.2532
▁웹툰	-11.2532
▁의사표시	-11.2532
▁이불킥	-11.2532
▁익숨함	-11.2532
▁재택근무	-11.2532
▁전기장판	-11.2532
▁젊	-11.2532
▁쥐꼬리	-11.2532
▁짬뽕	-11.2532
▁쪘	-11.2532
▁찾아갔습니다	-11.2532
▁춘곤증인가	-11.2532
▁컨트롤	-11.2532
▁켠	-11.2532
▁콕콕	-11.2532
▁클스마스	-11.2532
▁텁텁	-11.2532
▁튀	-11.2532
▁프라이버시	-11.2532
▁햇볕	-11.2532
▁험담	-11.2532
▁헤어졋	-11.2532
▁호텔	-11.2532
▁홧	-11.2532
▁황당하	-11.2532
▁황당해	-11.2532
▁흑역사	-11.2532
▁히스테리	-11.2532
굳	-11.2532
균	-11.2532
귤	-11.2532
깃	-11.2532
꼰	-11.2532
꽂	-11.2532
낀	-11.2532
넛	-11.2532
넥	-11.2532
녔	-11.2532
뇨	-11.2532
닷	-11.2532
덥	-11.2532
뒹	-11.2532
뚱	-11.2532
렉	-11.2532
렐	-11.2532
렴	-11.2532
룰	-11.2532
룸	-11.2532
릭	-11.2532
맹	-11.2532
맺	-11.2532
몬	-11.2532
밭	-11.2532
빽	-11.2532
뻤	-11.2532
뿅	-11.2532
쁨	-11.2532
삔	-11.2532
샘	-11.2532
섯	-11.2532
섹	-11.2532
쇠	-11.2532
시켰	-11.2532
쑤	-11.2532
씰룩	-11.2532
엠	-11.2532
왓	-11.2532
잊기싫은	-11.2532
줍	-11.2532
쥬	-11.2532
징글	-11.2532
짤	-11.2532
째깍	-11.2532
짼	-11.2532
쨌	-11.2532
찹	-11.2532
챘	-11.2532
쳇	-11.2532
측	-11.2532
캔	-11.2532
컷	-11.2532
켓	-11.2532
쿼	-11.2532
킬	-11.2532
킹	-11.2532
탐	-11.2532
퉁	-11.2532
펭	-11.2532
핀	-11.2532
핫	-11.2532
헐	-11.2532
휙	-11.2532
흡	-11.2532
흰	-11.2532
▁반배정	-11.2532
▁보듬어	-11.2532
▁가라앉	-11.2532
▁겉	-11.2532
▁고시생	-11.2532
▁그리웠나	-11.2532
▁기획사	-11.2532
▁꿰	-11.2532
▁노처녀	-11.2532
▁뜬	-11.2532
▁버텼	-11.2532
▁뺏	-11.2532
▁식욕폭발	-11.2532
▁옮	-11.2532
▁죄송해	-11.2532
▁취뽀	-11.2532
▁피어싱	-11.2532
▁행동일수도	-11.2532
웁	-11.2532
X	-11.2532
▁가르쳐	-11.2532
▁고구마	-11.2532
▁정동진	-11.2532
▁중간중간	-11.2532
▁훅	-11.2532
넋	-11.2532
띠	-11.2532
띰	-11.2532
칩	-11.2532
튜	-11.2532
▁북받쳐	-11.2532
▁사투리	-11.2532
▁으악	-11.2532
▁댓글	-11.2532
▁거슬려	-11.2532
▁댄디	-11.2532
▁북	-11.2532
▁섬유	-11.2532
▁식도염	-11.2532
▁잠식시키	-11.2532
▁쟁취하	-11.2532
▁한마디	-11.2532
▁황사	-11.2532
웽	-11.2532
윙	-11.2532
찡	-11.2532
▁근황	-11.2532
▁제자리걸음	-11.2532
오른다	-11.2532
▁메시지	-11.2532
▁괴로웠을	-11.2532
▁비행기표	-11.2532
▁씨앗	-11.2532
▁체육	-11.2532
▁입소문	-11.2532
▁처량하	-11.2532
▁태몽	-11.2532
▁쳐다봄	-11.2532
▁세탁	-11.2532
▁왔다갔다	-11.2532
▁견딜	-11.2532
▁베란다	-11.2532
하소연	-11.2532
▁도저히	-11.2532
▁탄생	-11.2532
▁해결방안	-11.2532
▁허무해	-11.2532
▁근교	-11.2532
걸레질	-11.2532
▁리액션	-11.2532
▁유세부	-11.2532
▁드러내	-11.2532
▁창문	-11.2532
▁양면과	-11.2532
▁자극이	-11.2532
▁감미로	-11.2532
▁쪽팔	-11.2532
▁답변	-11.2532
▁체력	-11.2532
▁지옥이네	-11.2532
▁렌즈	-11.2533
▁기뻐해	-11.2533
▁메뉴얼	-11.2533
▁뉴스	-11.2533
▁환경	-11.2533
▁카풀	-11.2533
▁넘어가네	-11.2533
▁건물주	-11.2533
▁동아리에	-11.2533
▁엊그	-11.2533
▁관찰	-11.2533
▁멀미	-11.2533
▁출국	-11.2533
▁대부분	-11.2533
▁초조해	-11.2533
▁치킨	-11.2533
▁비오는날	-11.2533
▁카공	-11.2533
▁광탈	-11.2533
그램	-11.2533
▁짜증난다	-11.2533
▁소홀	-11.2533
▁소풍	-11.2533
▁담담하	-11.2533
▁변덕스러운	-11.2533
▁편안해질	-11.2533
▁애써봐	-11.2533
▁위축	-11.2533
▁팔뚝	-11.2533
▁바래다	-11.2533
▁수십번	-11.2533
▁대충했	-11.2533
순위	-11.2533
▁헤어졌을때	-11.2533
▁타입인	-11.2533
▁감추는	-11.2533
▁선연하	-11.2533
▁갱신	-11.2533
▁공허하네	-11.2533
▁휘둘	-11.2533
▁복합적	-11.2533
▁경제력	-11.2533
▁구분짓	-11.2533
▁발등	-11.2533
▁영화보재	-11.2533
비꼬는	-11.2533
▁눌러	-11.2533
▁인형뽑기	-11.2534
달반	-11.2534
▁억울	-11.2534
▁마음가짐	-11.2534
▁언제부터인지	-11.2534
▁그만할래	-11.2534
▁지워버리	-11.2534
빌어먹을	-11.2534
합시다	-11.2534
▁갈등	-11.2534
▁색다른	-11.2534
▁보여드리	-11.2534
▁알뜰	-11.2534
▁변명거리	-11.2534
▁안타까워	-11.2534
▁단톡에	-11.2534
▁곤두	-11.2534
▁꽃바구니	-11.2534
▁매순간	-11.2534
▁후덜덜	-11.2535
▁체질	-11.2535
▁허전해	-11.2535
▁병행	-11.2535
▁이용당	-11.2535
▁말았네	-11.2535
▁맞출까	-11.2535
▁데려달라고	-11.2535
▁앞서서	-11.2535
▁미루	-11.2535
▁벗겨	-11.2535
▁롱디	-11.2535
▁초라해	-11.2535
▁후련해졌	-11.2535
▁돌아온	-11.2535
▁딴짓	-11.2535
▁잔인하네	-11.2535
▁대학교	-11.2535
▁동성애	-11.2535
▁빌릴까	-11.2535
▁명언	-11.2535
▁혼밥	-11.2536
▁떠나갔어	-11.2536
▁좋았을텐데	-11.2536
▁성급	-11.2536
▁도와준	-11.2536
▁양다리	-11.2536
▁청강	-11.2536
▁짝사랑이었네	-11.2536
▁이별하신	-11.2536
▁잔소리	-11.2536
▁바보짓	-11.2536
▁예전처럼	-11.2537
▁컸으면	-11.2537
▁아끼는	-11.2537
▁원망스럽	-11.2537
▁탓인지	-11.2537
▁자책	-11.2537
▁받아드리	-11.2537
▁끝인거겠죠	-11.2537
▁부담된다	-11.2537
▁자야하는데	-11.2537
▁삐져	-11.2537
년동거	-11.2537
▁강해지	-11.2537
▁바쁠	-11.2537
▁회복되	-11.2537
▁직감	-11.2537
▁잊어볼	-11.2537
▁일어난	-11.2537
▁구걸하	-11.2537
▁구남친	-11.2537
▁신입	-11.2538
▁연락두절	-11.2538
▁비왔으면	-11.2538
▁익숙해질	-11.2538
▁제습기	-11.2538
았더니	-11.2538
▁장난친	-11.2538
투덜	-11.2538
▁떠올라	-11.2538
▁구별해	-11.2538
▁힘든거네	-11.2538
▁고백해도될까	-11.2538
▁백수	-11.2538
▁불타	-11.2539
잊어보려고	-11.2539
▁되돌아보	-11.2539
▁해결해줄	-11.2539
국물	-11.2539
▁괴로운	-11.2539
▁난처	-11.2539
▁덤덤하게	-11.2539
▁착각일까	-11.2539
▁남은걸까	-11.254
▁꼬셔	-11.254
▁떠났습니다	-11.254
▁잊어야한다는	-11.254
▁걸어다니	-11.254
될것같	-11.254
▁산이네	-11.254
▁외박	-11.254
▁긴장돼	-11.254
▁촉이	-11.254
▁반복될	-11.254
잡히네	-11.254
▁따위	-11.254
▁취급	-11.254
잔치	-11.254
▁안돌아오나	-11.254
▁자제하는	-11.2541
▁정신병	-11.2541
▁이상하	-11.2541
▁불러준	-11.2541
▁끊었으면	-11.2541
▁가혹	-11.2541
▁혼란스	-11.2541
▁벌레	-11.2541
▁탄다	-11.2541
▁속아주	-11.2541
▁학교생활	-11.2542
▁맞는거겠죠	-11.2542
▁바나나	-11.2542
근한	-11.2542
▁잠들기	-11.2543
▁먹어야겠다	-11.2544
커풀	-11.2544
▁동거중	-11.2544
▁스케	-11.2544
▁솔직했으면	-11.2544
▁최저	-11.2544
▁태어났으면	-11.2545
▁싫었는데	-11.2545
▁무덤덤한데	-11.2545
▁분양	-11.2545
▁시절	-11.2546
▁웃겨	-11.2546
▁연애상담	-11.2546
▁냄새날	-11.2546
▁맞추려고	-11.2546
▁신기해	-11.2546
▁정리되었길	-11.2546
▁지침	-11.2546
▁휴우	-11.2547
▁버려달라고	-11.2548
▁서글	-11.2548
▁쳐다보	-11.2548
▁두분이	-11.2548
▁원두	-11.2548
용품	-11.2548
▁괜찮았는데	-11.2548
▁울었어	-11.2549
▁모양	-11.2549
▁시켜줘	-11.2549
▁파마	-11.2549
▁그립지만	-11.255
▁11	-11.255
▁지키기	-11.255
키기	-11.255
키니	-11.2551
▁졸린	-11.2551
▁사회에서	-11.2551
▁아까운	-11.2551
꾸룩	-11.2551
▁비추	-11.2552
▁야구	-11.2552
버렸나	-11.2552
▁봐야겠다	-11.2552
님들	-11.2553
▁않았을텐데	-11.2553
▁호구	-11.2553
▁똑똑	-11.2553
바구니	-11.2553
▁나날이었	-11.2553
▁잊고싶다	-11.2553
▁가족같은	-11.2553
▁끝났습니다	-11.2553
▁한심해	-11.2553
직구	-11.2553
▁환기	-11.2554
▁솔로야	-11.2554
▁어디있을까	-11.2554
▁구두	-11.2555
▁취소	-11.2555
근무	-11.2555
▁사라질까	-11.2556
▁꼬시지	-11.2556
▁방금	-11.2556
▁심란	-11.2556
▁만나고왔어	-11.2556
▁심난	-11.2556
▁사회	-11.2557
▁답일까	-11.2557
▁차리래	-11.2557
▁불만만	-11.2557
▁다음날	-11.2558
▁삼주	-11.2558
▁결재	-11.2559
▁또라이	-11.2559
▁예정	-11.2559
▁주체할	-11.2559
▁부팅	-11.256
▁아플까	-11.256
▁메일	-11.2561
▁남자분들	-11.2561
▁냉정할	-11.2561
▁궁금한게	-11.2562
▁결혼해야할까	-11.2562
▁감기약	-11.2562
▁눈빛	-11.2562
▁보조	-11.2562
날짜	-11.2563
▁결혼생활	-11.2564
▁순간들이	-11.2565
▁방구	-11.2566
던곳	-11.2566
▁해낸	-11.2567
▁안되는건가	-11.2567
▁취향인데	-11.2567
▁사랑꾼	-11.2567
▁돌봐	-11.2568
▁온천	-11.2568
▁편린	-11.2568
▁후련해	-11.2568
▁화살	-11.2568
▁무난	-11.2568
▁설레발	-11.2569
▁퇴근길에	-11.2569
플라	-11.2569
▁해외	-11.2569
▁위안	-11.2569
▁경과	-11.2569
▁되어가네	-11.257
▁12	-11.257
▁귀엽대	-11.2571
▁사이트	-11.2572
▁사랑했다는	-11.2572
▁그쪽	-11.2572
▁쓰디	-11.2574
방비	-11.2575
▁한순간에	-11.2575
▁괜찮아지길	-11.2575
▁순진	-11.2575
▁떠오르네	-11.2576
▁느끼게	-11.2576
▁불효자	-11.2577
▁일반적이	-11.2577
▁부담스러울	-11.2578
▁지친	-11.2581
▁미안함	-11.2581
▁한눈	-11.2582
▁변하니	-11.2582
▁퇴근길	-11.2582
리마	-11.2583
▁오후	-11.2583
해졌나봐	-11.2583
▁잘못했다는	-11.2583
▁전여자친구	-11.2584
▁떠나보내	-11.2584
바싹	-11.2585
▁올려봅니다	-11.2587
▁어쩔수없	-11.2587
▁이것만	-11.2588
▁절망적	-11.2589
▁해봤어요	-11.2589
액션	-11.259
▁화났	-11.259
주정도	-11.259
▁같았나	-11.2591
▁후회돼	-11.2591
올릴까	-11.2592
▁들었는데	-11.2592
▁이번주	-11.2593
▁살았는데	-11.2594
▁생일이야	-11.2594
▁장난인지	-11.2595
▁자식	-11.2595
▁겁이나	-11.2597
▁말로만	-11.2597
리스	-11.2597
▁쓰여	-11.2598
▁모처럼	-11.2598
손잡	-11.2598
▁무섭네	-11.2599
▁사줄까	-11.2599
▁멋있어	-11.2599
주룩	-11.2599
곳에	-11.26
분해	-11.2603
▁오르고	-11.2603
▁익숙해	-11.2603
▁찾아볼까	-11.2603
▁잘해준	-11.2604
▁엿같	-11.2604
▁찾아오길	-11.2606
▁마음속에	-11.2606
▁생겼대	-11.2607
▁오나	-11.2607
▁지옥같	-11.2607
▁마주쳤	-11.2607
▁보약	-11.2608
▁모질	-11.2608
▁계신	-11.2609
▁긴여	-11.2609
▁연락오네	-11.261
▁어쩌죠	-11.261
▁간지러	-11.2611
▁라는	-11.2613
▁심심하다고	-11.2615
▁자유로워질까	-11.2616
▁졸라	-11.2616
▁예전	-11.2617
▁약이라는	-11.2617
버리네	-11.2618
▁잘지내고	-11.2618
▁못내는	-11.2618
▁장수	-11.2619
▁주차장	-11.2619
▁안받아	-11.262
개월간	-11.262
▁안한	-11.262
▁여기까지였나	-11.262
▁단수	-11.2622
▁헤어졌으니까	-11.2623
▁약해지	-11.2623
▁아프니까	-11.2624
▁완벽해지	-11.2624
▁먹방	-11.2625
로워	-11.2625
▁정치	-11.2626
했었	-11.2627
▁정리하려고	-11.2627
▁출근길	-11.2627
▁심정	-11.2629
▁허기	-11.263
▁안열	-11.263
▁억	-11.2631
개월이네	-11.2631
▁솔로인	-11.2632
▁부질없는	-11.2633
▁잊혀져가	-11.2634
▁질린다	-11.2634
▁존중하	-11.2635
▁만져	-11.2635
▁먹었나봐	-11.2637
쓰담	-11.2637
▁사과해야	-11.2637
▁프	-11.2637
▁이별이야기	-11.2638
▁나올까	-11.2638
▁끝날	-11.2639
▁구해야	-11.2641
▁이별할때	-11.2643
▁사랑이였	-11.2643
▁기차	-11.2643
▁꾸는데	-11.2643
▁흐음	-11.2644
▁그런거지	-11.2644
▁그대로인	-11.2645
▁그렇겠지	-11.2646
▁나오지	-11.2647
▁높이	-11.2647
▁흘렀는데	-11.2648
잊혀지려	-11.2648
▁해야겠어	-11.2649
▁속지말	-11.2652
▁못하나봐	-11.2653
▁안되겠죠	-11.2654
▁버리기	-11.2654
▁젖어	-11.2656
▁흔적이	-11.2656
▁매달리	-11.2657
▁수순	-11.2659
▁상처들	-11.2659
실수했다	-11.266
▁마디	-11.2661
▁직업이	-11.2661
가운	-11.2662
▁너그	-11.2663
▁무색하게	-11.2664
참아왔	-11.2665
▁오늘부	-11.2666
▁정상인가	-11.2669
▁없었나봐	-11.2671
하시겠	-11.2672
▁수수한	-11.2676
▁그분과	-11.2676
▁상메에	-11.2679
▁새롭	-11.268
▁그런건지	-11.268
▁권	-11.268
▁못잊을	-11.2684
스럽다	-11.2684
▁제사	-11.2686
▁감당이	-11.2687
▁설레게하	-11.2688
▁정리해야지	-11.2691
▁힘드나	-11.2692
▁자금	-11.2693
▁마시기	-11.2693
근데	-11.2693
▁찍었	-11.2693
▁있다는데	-11.2696
▁너덜너덜해	-11.2698
▁화나고	-11.27
▁초기	-11.27
▁공감되	-11.2703
지망	-11.2706
▁힘드신	-11.2711
기면	-11.2715
▁온다면	-11.2724
▁노래들	-11.2727
▁궁금해하지	-11.2728
▁필요할까	-11.273
고쳤	-11.273
▁충	-11.2732
기능	-11.2732
▁티비	-11.2734
▁귀엽죠	-11.2734
▁밉다	-11.2735
▁잔인	-11.2736
▁말하면	-11.2736
▁놀려	-11.2736
않으려고	-11.2737
▁내려놓고	-11.2737
주절	-11.2738
▁잘해줘서	-11.274
▁변덕	-11.2741
▁받았나	-11.2745
▁끝이라고	-11.2745
▁연기	-11.2747
▁질리게	-11.2748
▁축	-11.2748
▁여친과	-11.2751
▁없거	-11.2753
▁비참해	-11.2755
아리	-11.2757
▁됐나	-11.2757
▁것이겠죠	-11.2758
▁붙잡으려	-11.2759
하던가요	-11.2761
▁이루어질	-11.2763
▁단어	-11.2763
▁끝나네	-11.2763
▁차라	-11.2763
▁뭘해도	-11.2768
▁내려놓는	-11.2772
▁한달인데	-11.2772
▁입맛없	-11.2773
▁둘다	-11.2773
추세	-11.2774
▁칼	-11.2778
▁확	-11.2779
▁주차	-11.2779
▁블	-11.2781
해줬	-11.2781
쓰레기통	-11.2782
▁문화	-11.2782
▁찰랑	-11.2785
▁이후	-11.2785
을까요	-11.2788
▁잊었다	-11.2791
▁되돌리	-11.2791
▁연하	-11.2793
▁직장인	-11.2794
▁썩	-11.2794
▁쫄	-11.2794
▁툭	-11.2794
▁장난치	-11.2795
▁힘들줄	-11.2796
▁쏟아	-11.2798
▁없었어	-11.28
▁부모	-11.2801
▁잘못이지	-11.2804
▁찾아갔네	-11.2805
같다가도	-11.2808
▁꼈어	-11.281
▁촬영	-11.2811
▁불쌍	-11.2811
▁지쳐가네	-11.2811
라구	-11.2811
▁예약	-11.2814
▁남이죠	-11.2814
▁근질	-11.2816
▁따르	-11.2818
▁외로워서	-11.2824
▁다되어가네	-11.2829
▁훈훈하	-11.2829
▁병신인	-11.2832
▁당했습니다	-11.2834
▁만들어보	-11.2836
보내주려	-11.2836
▁카톡하는	-11.2837
▁봤으면	-11.2837
▁본인만	-11.2838
▁오니	-11.284
▁술이야	-11.2841
▁유학간	-11.2842
▁불가능	-11.2844
▁비싸다	-11.2849
하겠지	-11.2851
▁잘지내고있	-11.2851
▁술기운	-11.2852
▁공간	-11.2853
통이	-11.2857
▁수상한	-11.2858
침해	-11.2862
▁이상하지	-11.2863
▁놀라	-11.2865
▁소개받	-11.2866
▁구질	-11.2867
식을	-11.2869
▁지났는데	-11.2874
▁아깝다	-11.2878
▁사라지	-11.2879
▁골랐	-11.2881
▁외로울	-11.2882
▁손이	-11.2888
▁기운내	-11.2889
▁않겠지	-11.2899
▁사랑이란	-11.2901
부한	-11.2902
▁정확한	-11.2907
▁아프죠	-11.2909
▁경우에	-11.2909
▁꺼질	-11.291
▁누구야	-11.291
올거	-11.2912
▁옳은	-11.2912
▁잘생겼어	-11.2912
긴이별	-11.2913
▁미쳤	-11.2915
▁한사람	-11.2917
▁쟁	-11.2917
▁번복	-11.2918
나온	-11.2919
▁알지만	-11.292
민가	-11.2927
▁받네	-11.2932
었을까	-11.2935
왔으면	-11.2936
마시러	-11.294
어야	-11.2945
▁끈이었	-11.2947
한듯	-11.2948
▁그후	-11.2951
▁엉망	-11.2957
▁덜하	-11.2966
▁기분이야	-11.2968
▁보드	-11.2969
되시길	-11.2973
▁나갈까	-11.2976
▁선물해	-11.2979
▁아파할	-11.2988
걸리겠어	-11.2988
▁경험해보	-11.2996
▁잊혀지네	-11.2997
▁웨딩	-11.2998
사랑	-11.3024
타이	-11.3025
▁못할까	-11.3025
▁데려다주	-11.304
쓰는	-11.3042
▁무너지	-11.3043
▁얘	-11.3043
하는걸	-11.305
여주	-11.305
▁흘렸	-11.3051
아무일	-11.3053
양말	-11.3054
반짝	-11.3062
▁덜해	-11.3066
▁달래	-11.3067
▁날이야	-11.307
▁바라보	-11.3073
샤워해	-11.3074
▁알아버렸	-11.3077
▁엄청나	-11.3078
부르	-11.3078
수라	-11.3081
▁반응해	-11.3082
말이라	-11.3082
▁적극적이	-11.3082
▁힘들대	-11.3085
▁좋아하는건가	-11.3086
▁강요하는	-11.3089
▁저음	-11.3093
환해	-11.3097
▁신기	-11.3102
▁낫지	-11.3104
▁부러	-11.3108
됐으면	-11.311
내야하나	-11.311
▁지금까지	-11.3114
▁헌신하	-11.3115
연애였는데	-11.3117
▁못자고	-11.3118
▁낸다	-11.3121
들어도	-11.3128
▁노력해야	-11.3137
▁애야	-11.3137
▁다음주	-11.3138
▁마라	-11.3138
▁노력한	-11.314
▁씌었	-11.3141
▁하는건가	-11.3145
▁어이없	-11.315
▁안에	-11.3151
▁나타났	-11.3157
▁다정	-11.3171
으셨나	-11.3172
▁사랑했는데	-11.3173
제로	-11.3174
▁잘라야	-11.3175
▁괴로	-11.3179
▁속지	-11.3179
▁패	-11.3185
▁뿌리	-11.3188
▁이별인가봐	-11.3191
▁얼어	-11.3196
▁S	-11.3203
▁빙	-11.3203
이에	-11.3209
▁못하네	-11.3213
친구에게	-11.3216
▁후련할거	-11.3219
해본적	-11.3226
▁제길	-11.3231
있는데	-11.3232
▁방향	-11.3234
▁내장	-11.3238
갔네	-11.3242
▁이야기할	-11.3248
▁키스	-11.325
▁가리	-11.3258
▁기름	-11.3259
페이	-11.3263
▁그사람은	-11.3268
▁잼	-11.3278
▁살았다	-11.3283
▁공부한	-11.3291
▁생각하면서	-11.3291
▁연애할	-11.3299
▁타로	-11.33
▁조건	-11.3307
▁친구사이	-11.3308
▁짜증나게	-11.3309
▁생겼나봐	-11.3314
▁하는걸	-11.3316
▁인연이었	-11.3323
▁그만둬야	-11.3326
▁근	-11.3332
▁줘야	-11.3335
떠나려	-11.3349
▁고기	-11.335
▁비워	-11.3354
▁불렀	-11.3363
▁상처받는	-11.3384
했더	-11.3391
출하	-11.3393
▁행복했	-11.3394
▁할래	-11.3397
▁전과	-11.34
▁질투하	-11.3425
나네	-11.3427
▁타이밍인	-11.3428
▁벽	-11.3432
▁안내는	-11.3432
▁걷는	-11.3444
▁했네	-11.3446
▁안돼나	-11.3448
표인	-11.3455
▁불안	-11.3456
▁해줬으면	-11.3457
다는걸	-11.346
일뿐	-11.3466
지우는	-11.3466
▁싫어할까	-11.3473
▁이겨야	-11.3484
▁지키는	-11.3484
▁열받아	-11.3501
▁공개해	-11.351
▁준비할	-11.3514
▁최악이	-11.3515
▁놈이	-11.3516
안보여	-11.352
▁모의	-11.3526
▁과식했	-11.3526
▁아니였	-11.3528
▁어색할까	-11.3529
▁못잊겠	-11.353
구만	-11.3532
되기	-11.3538
▁인정해야	-11.3562
▁이별했어	-11.3574
▁롱	-11.3576
▁햇	-11.3579
▁내맘같	-11.3581
▁기복	-11.3584
▁위로받	-11.3587
신고	-11.3588
틀	-11.3589
▁새장	-11.3591
▁변할까	-11.3593
▁재밌겠	-11.3606
▁다녀온	-11.361
▁만큼만	-11.3614
했었는데	-11.3615
▁존중하는	-11.3619
▁해가	-11.3619
▁왕따인	-11.3622
▁겠지	-11.3635
▁프사가	-11.3642
▁찍은	-11.3643
▁올라오	-11.3645
▁나빠졌	-11.3651
갈래	-11.3667
▁타인	-11.3672
▁잊어야해	-11.3675
하기로했	-11.3679
사고	-11.3681
▁애석하	-11.3682
▁까먹지	-11.3685
▁찬	-11.3692
해줄까	-11.3697
▁전부였	-11.3706
▁공원	-11.3716
물이라	-11.3722
오는데	-11.3725
▁잠들	-11.3736
▁가라	-11.3737
나만	-11.3749
▁복잡하네	-11.3758
▁단순하	-11.376
▁적절	-11.3761
동을	-11.3763
▁죄인	-11.3773
시간에	-11.3779
취해	-11.3782
▁우정	-11.3786
▁할일	-11.3789
▁지쳐가	-11.3791
▁짝사랑하	-11.3798
돋을	-11.3815
▁모르지	-11.3816
▁좋아보여	-11.3848
▁보는데	-11.385
▁여자야	-11.387
사이	-11.3874
▁틀어	-11.3876
▁의자	-11.3877
▁면도	-11.3905
▁잊지말	-11.3907
▁없었겠	-11.3908
▁이별후에	-11.3914
▁놀러갈	-11.3921
▁대상이	-11.3922
▁진지한	-11.3924
▁헤어진다	-11.3931
어버리	-11.3932
▁피곤하겠	-11.3938
▁떡	-11.3939
▁지우려	-11.3956
▁먼저하는	-11.3963
학번	-11.3966
▁잊어야겠	-11.3968
▁중이	-11.3969
중인	-11.3974
▁식상	-11.3976
▁삼가	-11.3979
챙겼	-11.3986
사귀다	-11.3989
▁보고싶어요	-11.3991
▁놓으려	-11.4001
▁글자	-11.4014
▁관리해	-11.4018
버려야	-11.402
▁좋아했	-11.4024
았다	-11.4037
여친	-11.4041
▁껴	-11.4049
▁답답	-11.4051
▁간에	-11.4055
▁쪄	-11.4059
▁기억안	-11.4064
점이	-11.4073
▁확인하	-11.4091
었네	-11.4095
▁사귄지	-11.4095
건너	-11.4102
▁이쁘	-11.4107
다더니	-11.4111
▁부르는	-11.4111
오길	-11.4122
▁생각났	-11.4143
▁못하니	-11.4151
▁놓아줬	-11.4156
▁잘되	-11.4163
▁풀어주	-11.4164
▁살려	-11.4164
▁차렸을	-11.4166
▁씻기	-11.4202
던데	-11.4223
▁부탁드	-11.4225
▁검색해	-11.4226
▁받아들여야할	-11.4228
▁조심해야겠	-11.4232
▁단계라	-11.4233
▁그리워지	-11.4235
▁멍청한	-11.4241
▁마주보	-11.4247
▁독한	-11.4248
▁나약하	-11.4252
▁연락하기	-11.4259
워서	-11.4261
▁궁	-11.4267
▁응원해주	-11.4278
▁도와줄	-11.4279
▁욕을	-11.4286
▁높이는	-11.4297
주려고	-11.4317
▁극	-11.4317
▁맞춰보	-11.4322
▁행동을	-11.434
▁반이라	-11.4342
▁그런건	-11.4343
연이	-11.4352
▁말만	-11.4359
▁써보	-11.4365
▁들려	-11.4366
▁다른반	-11.4418
▁했을까	-11.4421
뭐냐	-11.4445
▁다쳤	-11.4446
겼다	-11.4458
▁만족하	-11.4466
▁공부해	-11.4482
▁풀렸다	-11.4499
▁부담스러워해	-11.4521
▁망설여지	-11.4529
▁아들	-11.4558
들겠지	-11.4558
▁매달렸	-11.4559
▁은퇴해야	-11.4583
▁나을가	-11.4589
월해	-11.4593
다니기	-11.4599
▁많을까	-11.4599
러운	-11.4602
▁지켜야	-11.4609
서점에	-11.4611
▁유지	-11.4612
▁잘자	-11.4616
▁역	-11.4649
이었을까	-11.4677
▁아쉽지	-11.4683
▁마셨어	-11.4686
▁안할	-11.4693
▁몰랐네	-11.4697
많이	-11.4706
고의	-11.4713
사는	-11.4715
달래	-11.4715
비해	-11.4727
▁편식	-11.4728
▁벌려	-11.4739
▁잠수이별인	-11.4743
▁가슴은	-11.4745
▁살랑	-11.4746
▁첫사랑인	-11.4755
▁잠겼	-11.4756
▁날들	-11.4768
직하	-11.4777
▁신청했	-11.4777
▁동기	-11.4778
▁화장하	-11.4815
▁오래걸	-11.4818
▁숙	-11.4849
▁익숙함이	-11.4849
져야	-11.4853
ᄒ	-11.4855
▁결국은	-11.4855
▁밥도	-11.4862
상해	-11.4885
안나	-11.4899
▁봐봐	-11.4908
▁참아야	-11.4909
▁놓아줄	-11.4914
되겠죠	-11.4927
▁꿈이었	-11.4939
▁놓았	-11.4945
데도	-11.4962
어질	-11.4967
▁반하	-11.4973
▁저만	-11.4977
받아서	-11.4983
거였네	-11.4984
▁먹지	-11.4996
▁건네	-11.5013
혼인	-11.5026
라네	-11.5027
답이야	-11.5034
▁타나봐	-11.5036
▁힘들어하	-11.5042
▁후련	-11.5047
것만	-11.5049
시도	-11.5051
▁마무리하	-11.506
▁실망했	-11.5072
▁지내자	-11.5075
▁반이	-11.5083
와주	-11.5083
▁멍청	-11.5103
▁철벽치	-11.5111
▁그에게	-11.5122
▁지나갔네	-11.5132
시원해	-11.5142
▁술마시면	-11.5142
쓰기	-11.5143
▁태도에	-11.5172
▁별이	-11.5173
▁감성적	-11.5173
해버렸네	-11.5188
다면서	-11.5189
▁평가해	-11.5193
▁출	-11.5215
로운	-11.524
려지	-11.5242
▁힘들만	-11.5247
▁상처받아	-11.5248
▁싱숭생숭하	-11.5269
주의	-11.5299
▁갔다왔	-11.5303
▁맞는거	-11.5305
▁끊기	-11.5306
▁들어왔	-11.531
끝이보	-11.5316
소음	-11.5342
▁털어버	-11.5343
졌네	-11.5354
▁하고싶어	-11.5356
▁사랑인	-11.5359
생각	-11.5363
▁욕먹	-11.5382
▁질려	-11.5392
▁바디	-11.5414
▁왔	-11.5426
▁비교	-11.5436
▁연락오	-11.5437
▁터지겠	-11.5438
▁필요해보	-11.5447
▁깨지	-11.5452
▁돼지	-11.5452
▁붙였	-11.5462
▁비참하	-11.5483
▁답답한가	-11.5522
▁멍청하	-11.5528
▁생각해봐	-11.5535
할텐데	-11.5583
▁두려운가	-11.5586
거같은데	-11.5594
했잖아	-11.5618
▁백	-11.563
▁착각하	-11.5633
무리	-11.5636
▁끝나가	-11.5641
같은데	-11.5649
▁관심있는	-11.5665
▁생겼다는	-11.5703
▁도와드	-11.5727
▁여자에	-11.5753
▁동거해도	-11.5763
야할지	-11.578
▁가망	-11.5819
▁쌓이	-11.5829
▁만날수	-11.5835
▁보자는	-11.5849
지길	-11.5874
▁이사가	-11.5877
▁얼마전	-11.588
사람과	-11.5889
지못한	-11.5894
▁거리	-11.5907
▁니	-11.5918
▁준비해야	-11.5918
같죠	-11.5927
하자는	-11.593
▁끝났다	-11.5931
겨울	-11.5936
▁답답했	-11.5941
▁한편	-11.5945
▁했는	-11.5945
▁잘되고	-11.5945
▁데려다줬	-11.5955
거지같이	-11.5974
▁터졌	-11.5994
▁가네	-11.6
▁거절인	-11.6003
다네	-11.6014
할지	-11.6022
▁하라	-11.6032
이러니	-11.6037
▁복전	-11.604
독한	-11.6041
▁선택했	-11.6068
▁싸움이	-11.6078
▁순간에	-11.6088
해가	-11.6089
졌나봐	-11.6089
하겟	-11.6089
▁힘겨	-11.611
▁병이	-11.6117
▁생겼는	-11.6125
▁내길	-11.613
왔을	-11.6144
▁달째	-11.6144
▁안된	-11.6152
▁결혼에	-11.6156
▁적을	-11.6163
▁헤어진건	-11.6171
긴다	-11.6186
오려나	-11.6189
▁어렵겠지	-11.6239
▁줬으면	-11.6241
▁원망하	-11.625
▁좋아하면서	-11.6254
▁품	-11.6256
▁고백해보	-11.626
같	-11.6273
▁날이었	-11.6276
▁힘드시	-11.6276
끔	-11.6284
▁밥먹	-11.6292
▁떨쳐	-11.6309
▁임	-11.632
▁붙는	-11.6326
일이야	-11.6326
▁결혼식이	-11.6327
히는	-11.6345
▁편안	-11.6373
▁혼자있	-11.6374
▁차였	-11.6381
법이	-11.6396
그여자	-11.6436
들지만	-11.6455
▁해야하는	-11.6457
▁당황스러	-11.6461
르는	-11.6465
▁다른일	-11.6482
장에	-11.6492
▁내일이	-11.6493
▁오래가	-11.6503
다니고	-11.6513
▁소문	-11.6533
는것	-11.6536
▁믿어보	-11.6572
▁오래타	-11.6592
만나자는	-11.6613
▁잡아보	-11.6614
해지	-11.6618
사람들	-11.6621
▁알겠	-11.6625
이다	-11.6629
당했	-11.6649
▁몇시간	-11.665
▁헤어지겠	-11.6657
▁두려	-11.6658
한건지	-11.6661
초반	-11.6673
▁부족했	-11.668
는대로	-11.6723
어볼까	-11.6732
▁중요한가	-11.674
▁움	-11.6754
냈	-11.6768
드시	-11.6779
▁가득한가	-11.678
▁창업해	-11.6781
어졌어	-11.6782
▁새사람	-11.6797
▁국	-11.6799
▁피곤할	-11.6801
▁가득한	-11.6833
▁나라	-11.6839
▁했더	-11.6844
▁사랑한다는	-11.6864
▁기다리다	-11.6872
▁않음	-11.6879
▁연락하고싶	-11.6899
▁까먹었	-11.6914
▁걸지	-11.6922
▁비슷한가	-11.6924
▁내편	-11.6928
▁기도	-11.6931
같아요	-11.6933
▁왜이	-11.6943
었을	-11.6969
▁나아졌다	-11.6983
▁극복한	-11.6996
라이	-11.7065
▁각	-11.7068
야겠어	-11.7068
▁돌아가면	-11.7083
▁낫네	-11.7098
▁의외인	-11.715
▁서운하겠	-11.7152
▁있는건	-11.72
▁자만	-11.7201
▁차단했	-11.7204
▁뒤숭숭	-11.7231
인이	-11.7236
▁힘들어도	-11.7239
▁잊어주	-11.7256
나가	-11.7265
여리	-11.7266
해도될까	-11.728
▁긴장하	-11.7283
▁그러려	-11.7293
▁떠나야겠	-11.7307
줄래	-11.7322
▁말해봐	-11.7325
▁듣고싶	-11.7333
여행이	-11.7336
▁멋있는	-11.734
▁중요하겠지	-11.7341
▁잡는다	-11.7349
▁살만	-11.7369
▁힘들일이	-11.7375
앞	-11.738
▁무덤덤	-11.7399
중한	-11.7402
드는데	-11.7413
▁혼자라는	-11.7415
▁정확	-11.7511
움에	-11.7526
으려고	-11.7528
▁데이트하	-11.754
보고싶어	-11.7553
▁문제네	-11.7557
상이	-11.7562
것이	-11.7571
▁해봐야	-11.7578
▁축하해주	-11.758
해야하는	-11.7583
▁비가오니	-11.7584
다는것	-11.7587
▁변명이	-11.7591
▁미치네	-11.7594
▁케	-11.76
▁신고	-11.7611
버렸	-11.7619
하라	-11.7622
▁보내버렸	-11.7656
끌리	-11.7658
나와	-11.7664
▁왜이러	-11.7676
▁생각나기	-11.7679
▁일년같	-11.7687
▁아파하	-11.7693
돌이	-11.7738
상대로	-11.776
▁레	-11.7773
었음	-11.7779
▁끊기는	-11.7801
▁힘든건	-11.7826
▁불면증인가	-11.7861
▁철벽치는	-11.7862
▁착각인	-11.7862
가져	-11.7874
셨을	-11.7884
나가고	-11.7898
▁흐르네	-11.7905
말은	-11.7924
▁못잊	-11.7925
▁사랑하는건	-11.7926
▁환승이	-11.7933
해야겠지	-11.7938
다를	-11.7948
▁놀리	-11.7951
졌	-11.7952
▁사내에	-11.7959
▁걱정하	-11.7981
▁차단이	-11.7994
▁못하겠네	-11.8011
▁넘었	-11.8014
▁뭐였	-11.8023
▁취직하고	-11.8036
는걸까	-11.8042
▁솔직해	-11.8067
였네	-11.8067
어주지	-11.807
해줬으면	-11.807
▁일이었	-11.8095
▁자게	-11.8117
▁바람난거	-11.8119
늘	-11.8126
▁이어지	-11.8138
정해진	-11.8148
▁포기해야	-11.8191
▁답답하겠	-11.8191
네ᄒ	-11.8199
▁맞았네	-11.8208
▁익숙함	-11.8217
하게하	-11.8235
르겠지만	-11.8238
이였	-11.8243
을수	-11.8255
▁안오	-11.8257
주신	-11.826
▁모른척	-11.8272
▁없을거	-11.83
▁날까	-11.8305
서서	-11.8317
화가	-11.8332
▁시간이었겠	-11.8333
▁표현해주	-11.8341
다시	-11.8353
▁박	-11.8355
▁나오는	-11.8372
틀어	-11.8373
년이라	-11.8377
쓰	-11.8384
▁되었는	-11.8392
▁덤덤	-11.8397
▁단거	-11.8421
▁되셨	-11.8426
▁연애하	-11.8437
▁반장이	-11.8452
않아	-11.8459
▁거는	-11.8486
▁지속	-11.8507
▁상처에	-11.8517
▁바보라	-11.8531
▁싶어서	-11.8547
하자	-11.8593
겼	-11.8604
드는	-11.8623
가도	-11.8641
▁들어주	-11.8642
▁든	-11.8643
▁날도	-11.8658
▁망설여지는	-11.8664
워보	-11.8668
연애인데	-11.8671
자신	-11.869
▁안고	-11.8692
▁잊은	-11.8705
▁알바하면	-11.8706
▁카톡하	-11.8712
▁지우지	-11.8714
당하	-11.8717
키는	-11.8719
▁없애야	-11.8725
▁모임이	-11.8725
▁줄어	-11.873
▁약속잡	-11.8765
보이는	-11.879
▁잘살	-11.8811
▁무시했	-11.8831
했다는	-11.8854
▁하는거	-11.8859
워져	-11.887
▁봐야	-11.8881
▁생각했나	-11.889
▁사람이다	-11.8896
▁알아요	-11.892
연락	-11.8928
안된다	-11.8931
살인	-11.8963
같았	-11.901
▁날이에	-11.9015
▁인스타에	-11.9015
해하지	-11.9028
▁되었어	-11.9046
▁말려	-11.9048
▁지금이	-11.9092
▁사람일까	-11.9103
▁이별했	-11.9104
▁찾아야	-11.9123
부러	-11.9147
▁감사해	-11.9164
진짜	-11.9187
▁변했	-11.9248
▁사랑해줘	-11.9259
▁수준이	-11.9267
갔	-11.9274
정적	-11.9281
▁갔을	-11.929
▁그러니	-11.9313
이거	-11.9343
▁못가	-11.9347
돼요	-11.9356
난거	-11.9423
▁앞이	-11.9459
▁끝인거	-11.9461
스러울	-11.9461
▁두려워지	-11.9463
▁예민	-11.9468
▁도네	-11.9478
▁간사	-11.9497
으셨	-11.9503
▁한달됐	-11.9542
힘든	-11.9553
▁상태인가	-11.9559
▁떨리네	-11.9568
▁데이트하기	-11.9572
떡	-11.9596
▁스킨십하고	-11.9608
▁먹어보	-11.961
보내	-11.9611
러가	-11.9623
인거죠	-11.9626
는건지	-11.9632
렸을까	-11.9641
해주고	-11.9645
▁동거하	-11.9653
▁준다	-11.9675
할수	-11.9706
▁않으	-11.9711
해보는	-11.9713
▁막막	-11.9718
간에	-11.9719
▁같았	-11.973
▁내꺼	-11.974
▁남았나	-11.9741
▁허락	-11.9763
▁찾아가보	-11.977
▁나약	-11.9771
했을	-11.9773
▁축하	-11.978
진지	-11.978
▁아침이에	-11.9785
▁절약해	-11.9793
▁돋	-11.9815
▁전하	-11.9819
창이	-11.9823
▁지지	-11.9834
▁있을게	-11.9836
▁번이	-11.9841
려달라고	-11.9859
적하지	-11.9873
힘들어	-11.988
▁남이	-11.9899
천하	-11.99
▁이별중	-11.9915
청소	-11.9916
어야지	-11.9921
본지	-11.9941
지말	-11.9941
상하지	-11.9958
해야할	-11.996
▁우정이	-11.9965
해가는	-12.0011
술	-12.0035
▁대하	-12.0039
▁밀당해	-12.0069
이게	-12.007
▁나나봐	-12.0088
아지길	-12.0094
드나	-12.0104
힘드네	-12.0106
▁갠톡하	-12.012
시간동안	-12.0123
주라	-12.0127
잡	-12.0132
▁입는	-12.0144
▁휴학하	-12.0158
▁흘	-12.0166
▁매력적	-12.0178
무슨	-12.0183
싫어	-12.0196
▁철벽	-12.0202
된걸까	-12.0222
헤어진	-12.024
만나	-12.025
여기	-12.0267
켜	-12.028
▁전화하면	-12.0281
사니	-12.0283
짰다	-12.0304
어진	-12.036
감정	-12.0363
▁안좋아	-12.0375
▁들어보	-12.0391
▁어색할	-12.0395
들음	-12.0408
그런건가	-12.0438
▁가봐	-12.0462
▁얘기하	-12.0464
▁지키	-12.0465
생일	-12.0475
▁안난다	-12.0475
내일	-12.048
▁여자사람	-12.0483
았나	-12.0485
잡아보려	-12.0493
야한다는	-12.0495
붙	-12.0519
벽	-12.0519
주려	-12.0534
이유	-12.0535
고민	-12.0546
▁걱정해	-12.0551
덜	-12.0558
▁벗으	-12.0572
▁싸웠는	-12.0576
못하고	-12.0578
▁나에	-12.0579
▁어색	-12.0588
였다	-12.0592
언제	-12.0605
릴까	-12.0607
좋겠다	-12.0616
좋을까	-12.0618
▁친해지	-12.0624
놓	-12.0627
귀	-12.0638
▁청춘	-12.0644
내보세요	-12.0661
착해	-12.0667
거울	-12.0679
▁백업	-12.0681
났	-12.072
▁알게되	-12.075
마지막	-12.0762
▁길에	-12.0774
▁힘들기	-12.0778
▁가져봐	-12.0787
해지는	-12.0798
아직도	-12.0802
놀	-12.0809
어리	-12.0815
않을	-12.0836
술먹	-12.0842
▁형	-12.0847
추억	-12.0847
순간	-12.0863
아졌어	-12.0873
▁살았	-12.0874
인생	-12.0876
▁딸	-12.0888
풀	-12.0906
않은	-12.0913
나갈까	-12.0914
▁받으려	-12.0934
▁싫으	-12.0937
알았는데	-12.094
▁변할	-12.0944
▁탈퇴했	-12.0954
▁인사하	-12.0968
꼭	-12.097
▁하고싶	-12.097
났나봐	-12.0978
이시군요	-12.0978
한가봐	-12.0982
▁동거하는	-12.0984
써	-12.0985
▁응원해	-12.0991
날씨	-12.0996
소리	-12.1006
미련	-12.1012
▁말해본	-12.1021
짝남한테	-12.1021
▁말조심	-12.1025
어디	-12.1035
얼	-12.1052
냈는데	-12.1069
만나고	-12.1088
앞에	-12.1093
▁말해줄	-12.1096
웠을	-12.1105
▁만났네	-12.1106
커피	-12.1107
▁가을	-12.1121
헤어지	-12.1121
▁났나	-12.1129
과일	-12.1129
야하는	-12.113
방법이	-12.1146
빠	-12.1151
▁헌신	-12.1175
아닌	-12.1179
사진	-12.1182
뜻	-12.1188
해주세	-12.1189
▁운동해	-12.119
활	-12.1196
▁그렇다는	-12.1198
썸남	-12.12
척이	-12.1204
▁불편하	-12.1212
▁예뻐보	-12.1231
말아	-12.1231
했겠	-12.1236
영화	-12.1246
빨리	-12.125
잠	-12.1256
▁방법이겠	-12.1267
▁받을까	-12.1275
두는	-12.1291
▁연락해봐	-12.1297
백한다	-12.1307
▁않을거	-12.1312
랐	-12.1314
손	-12.1321
▁불금	-12.1324
일어나	-12.133
▁부담스러워할	-12.1369
여유	-12.1371
▁사귀지	-12.1372
▁물어볼	-12.1377
느낌	-12.1379
▁과에	-12.1379
▁같은거	-12.1384
▁해야되	-12.1394
노력	-12.1397
직장	-12.1399
신경	-12.1415
▁밤이	-12.1421
싫다	-12.1427
웨딩	-12.1427
위해	-12.1431
계	-12.1439
족	-12.1441
덕	-12.1449
▁허무하	-12.1452
좋	-12.1453
▁잤나	-12.1454
자가	-12.1457
쟁	-12.1463
▁집착인가	-12.1465
숨	-12.1466
꿈에	-12.1481
쳤나	-12.1482
잠깐	-12.1495
놀아	-12.1495
찾기	-12.15
쉽	-12.1504
▁중독인	-12.1509
달차	-12.1511
▁곁	-12.1512
안되는	-12.1515
생겼	-12.1515
▁얘기할	-12.1516
▁엉	-12.1518
자신이	-12.1519
시험	-12.1524
핑	-12.1535
밀	-12.1537
받는	-12.1541
▁이별이었	-12.1542
갖	-12.1545
▁올거	-12.1548
하늘	-12.155
춘	-12.1551
위로	-12.1553
▁연락오는	-12.1555
▁웃으	-12.1555
사람친구	-12.1556
카페	-12.1558
상담	-12.1562
짜증나	-12.1569
나가나	-12.1575
내줄게	-12.1582
경우	-12.1587
시키	-12.1587
편지	-12.1589
끊었	-12.1598
미세먼지	-12.1609
조언	-12.1609
듣	-12.161
깊	-12.1614
흘렀네	-12.1615
마시	-12.1623
▁갑작스	-12.1625
하는거죠	-12.1638
▁결혼이	-12.1639
▁많았겠	-12.1644
봄	-12.1644
▁있었겠	-12.1651
조심	-12.1657
한잔	-12.1661
얘기	-12.1662
효	-12.1672
취미	-12.1672
알면서도	-12.1675
현상	-12.1675
아야	-12.1687
우울	-12.1688
크리스마스	-12.1696
놀러가	-12.1699
가능성	-12.17
꾹	-12.17
극복	-12.17
믿	-12.1705
않으니	-12.1707
싱	-12.1709
희망	-12.1717
하우스	-12.1723
말투	-12.1724
다녀야	-12.1724
줄거	-12.1728
꼬	-12.1735
이런건	-12.1743
하나요	-12.1747
쥐	-12.1748
우울해	-12.1754
만나기로	-12.1756
떠	-12.1756
르지	-12.1758
베터리	-12.1759
등	-12.1763
똥	-12.1764
프로포즈	-12.1767
헤어졌네	-12.1769
동물	-12.177
됐	-12.1771
탄	-12.1771
▁죽었나	-12.1771
▁문제인	-12.1771
두근	-12.1775
▁사랑이었을	-12.1778
했다면	-12.1778
원망	-12.1782
악	-12.1787
보러가	-12.1788
완	-12.1788
졸	-12.1788
셔야죠	-12.1793
더워	-12.1794
8	-12.1795
않네	-12.1795
근처	-12.1799
편할	-12.1801
끌	-12.1801
출근	-12.1804
추억이	-12.1806
착	-12.1807
▁훈훈	-12.1809
▁싶어진	-12.1815
넌	-12.1815
뜻하	-12.1815
서로	-12.1815
노력해	-12.1819
끝나	-12.182
잤어	-12.1822
언제까지	-12.1822
칼	-12.1831
쐬	-12.1834
쓴	-12.1834
탔	-12.1842
응	-12.1857
센	-12.1872
베	-12.1885
썩	-12.1891
쫄	-12.1891
툭	-12.1891
존	-12.1899
끈	-12.1908
널	-12.1918
땅	-12.1918
찼	-12.1918
블	-12.192
볶	-12.1923
쭉	-12.1923
팩	-12.1923
윗	-12.1926
쳤	-12.1934
냉	-12.194
농	-12.1947
축	-12.1948
골	-12.1957
충	-12.198
털	-12.1991
권	-12.1991
멋	-12.202
헤	-12.2056
즐	-12.2127
찾	-12.2287
람	-12.2336
싹	-12.2398
십	-12.2453
쁜	-12.2459
련	-12.2464
립	-12.2487
혹	-12.2507
딛	-12.2512
꼈	-12.2512
벼	-12.2514
렀	-12.2514
혔	-12.2516
쁠	-12.2519
듭	-12.252
빴	-12.2523
깝	-12.2524
뜰	-12.2525
맙	-12.2525
황	-12.2526
춤	-12.2528
톱	-12.2528
닿	-12.2528
풍	-12.2529
봇	-12.2529
쩌	-12.2529
턴	-12.2529
엽	-12.253
섭	-12.253
홀	-12.253
램	-12.253
끗	-12.2531
욜	-12.2531
칭	-12.2531
몽	-12.2532
낭	-12.2532
딜	-12.2532
률	-12.2532
묵	-12.2532
익	-12.2532
봉	-12.2532
;	-12.2532
j	-12.2532
댄	-12.2532
긍	-12.2532
딘	-12.2532
L	-12.2532
O	-12.2532
_	-12.2532
겹	-12.2532
롤	-12.2532
첩	-12.2532
콘	-12.2532
팍	-12.2532
퓨	-12.2532
훅	-13.5871
홧	-13.5872
튀	-13.5873
텼	-13.5874
텔	-13.5875
킥	-13.5876
쪘	-13.5877
짬	-13.5878
졋	-13.5879
젊	-13.588
웹	-13.5881
옮	-13.5882
옛	-13.5883
얽	-13.5884
얇	-13.5885
씸	-13.5886
씰	-13.5887
썰	-13.5888
숫	-13.5889
숏	-13.589
섰	-13.5891
뽕	-13.5892
뺏	-13.5893
빚	-13.5894
볕	-13.5895
랙	-13.5896
띵	-13.5897
뜬	-13.5898
뚫	-13.5899
덮	-13.59
댔	-13.5901
논	-13.5902
꿰	-13.5903
꽝	-13.5904
꼴	-13.5905
깼	-13.5906
깬	-13.5907
괘	-13.5908
겜	-13.5909
겉	-13.591
o	-13.5911
g	-13.5912
흑	-13.5913
홈	-13.5914
헹	-13.5915
쿵	-13.5916
쿨	-13.5917
컸	-13.5918
컥	-13.5919
캬	-13.592
촬	-13.5921
총	-13.5922
찜	-13.5923
찔	-13.5924
쪼	-13.5925
좌	-13.5926
엿	-13.5927
엊	-13.5928
엉	-13.5929
앱	-13.593
쏟	-13.5931
쎄	-13.5932
묘	-13.5933
몫	-13.5934
멘	-13.5935
릇	-13.5936
렛	-13.5937
랖	-13.5938
떴	-13.5939
됬	-13.594
눕	-13.5941
눌	-13.5942
뇌	-13.5943
끓	-13.5944
꽉	-13.5945
갱	-13.5946
헌	-13.5947
폼	-13.5948
팀	-13.5949
툴	-13.595
템	-13.5951
텁	-13.5952
탓	-13.5953
켰	-13.5954
층	-13.5955
짰	-13.5956
옳	-13.5957
엮	-13.5958
씌	-13.5959
쏠	-13.596
썹	-13.5961
쉴	-13.5962
섬	-13.5963
볍	-13.5964
밉	-13.5965
맴	-13.5966
렜	-13.5967
긋	-13.5968
광	-13.5969
겪	-13.597
갠	-13.5971
휘	-13.5972
팠	-13.5973
퀴	-13.5974
웬	-13.5975
왠	-13.5976
쌩	-13.5977
쌍	-13.5978
싼	-13.5979
슈	-13.598
삐	-13.5981
밟	-13.5982
밑	-13.5983
묻	-13.5984
뢰	-13.5985
령	-13.5986
늙	-13.5987
낳	-13.5988
낚	-13.5989
낙	-13.599
낄	-13.5991
헥	-13.5992
틋	-13.5993
툼	-13.5994
켠	-13.5995
짱	-13.5996
징	-13.5997
젯	-13.5998
씁	-13.5999
뽀	-13.6
릎	-13.6001
렬	-13.6002
딪	-13.6003
둠	-13.6004
돋	-13.6005
늠	-13.6006
곱	-13.6007
검	-13.6008
객	-13.6009
A	-13.601
훈	-13.6011
콕	-13.6012
잇	-13.6013
벚	-13.6014
맡	-13.6015
땡	-13.6016
넓	-13.6017
낮	-13.6018
꼼	-13.6019
깎	-13.602
n	-13.6021
컴	-13.6022
젖	-13.6023
얻	-13.6024
앉	-13.6025
샤	-13.6026
렘	-13.6027
녹	-13.6028
곁	-13.6029
9	-13.603
콤	-13.6031
뽑	-13.6032
뤄	-13.6033
랫	-13.6034
띄	-13.6035
뛰	-13.6036
땀	-13.6037
닮	-13.6038
닫	-13.6039
뉴	-13.604
규	-13.6041
헬	-13.6042
잃	-13.6043
옥	-13.6044
씻	-13.6045
씹	-13.6046
딴	-13.6047
넣	-13.6048
뀔	-13.6049
깔	-13.605
걔	-13.6051
갚	-13.6052
푹	-13.6053
춥	-13.6054
웨	-13.6055
밝	-13.6056
렌	-13.6057
딸	-13.6058
둬	-13.6059
깍	-13.606
귈	-13.6061
텨	-13.6062
썼	-13.6063
슷	-13.6064
녁	-13.6065
뀌	-13.6066
깜	-13.6067
N	-13.6068
7	-13.6069
컨	-13.607
잤	-13.6071
셀	-13.6072
눠	-13.6073
액	-13.6074
샀	-13.6075
브	-13.6076
뒷	-13.6077
획	-13.6078
쩔	-13.6079
밍	-13.608
삼	-13.6081
뻔	-13.6082
멈	-13.6083
됩	-13.6084
냄	-13.6085
삭	-13.6086
걷	-13.6087
틱	-13.6088
쌓	-13.6089
쇼	-13.609
북	-13.6091
희	-13.6092
헛	-13.6093
옆	-13.6094
삶	-13.6095
끄	-13.6096
꿔	-13.6097
탁	-13.6098
멀	-13.6099
높	-13.61
낫	-13.6101
헷	-13.6102
벗	-13.6103
멍	-13.6104
읽	-13.6105
숭	-13.6106
곧	-13.6107
잖	-13.6108
엇	-13.6109
뎌	-13.611
녕	-13.6111
득	-13.6112
렵	-13.6113
깐	-13.6114
승	-13.6115
흔	-13.6116
퇴	-13.6117
밌	-13.6118
괴	-13.6119
짧	-13.612
빌	-13.6121
핸	-13.6122
끊	-13.6123
꽃	-13.6124
몇	-13.6125
픔	-13.6126
똑	-13.6127
흐	-13.6128
덤	-13.6129
뭔	-13.613
뻐	-13.6131
슴	-13.6132
씀	-13.6133
닐	-13.6134
큰	-13.6135
0	-13.6136
웃	-13.6137
흘	-13.6138
평	-13.6139
맨	-13.614
첫	-13.6141
챙	-13.6142
험	-13.6143
죽	-13.6144
최	-13.6145
엄	-13.6146
슨	-13.6147
격	-13.6148
쁘	-13.6149
럼	-13.615
떤	-13.6151
뭘	-13.6152
택	-13.6153
닌	-13.6154
걱	-13.6155
랄	-13.6156
막	-13.6157
큼	-13.6158
접	-13.6159
봅	-13.616
럴	-13.6161
변	-13.6162
억	-13.6163
싫	-13.6164
짜	-13.6165
맞	-13.6166
떻	-13.6167
렇	-13.6168
왜	-13.6169
잊	-13.617
괜	-13.6171
찮	-13.6172
뭐	-13.6173
습	-13.6174
혼	-13.6175
알	-13.6176
썸	-13.6177
않	-13.6178
많	-13.6179
힘	-13.618
싶	-13.6181
없	-13.6182
